{"version":"1.0","truncation":null,"padding":null,"added_tokens":[{"id":0,"special":true,"content":"[UNK]","single_word":false,"lstrip":false,"rstrip":false,"normalized":false},{"id":1,"special":true,"content":"[CLS]","single_word":false,"lstrip":false,"rstrip":false,"normalized":false},{"id":2,"special":true,"content":"[SEP]","single_word":false,"lstrip":false,"rstrip":false,"normalized":false},{"id":3,"special":true,"content":"[PAD]","single_word":false,"lstrip":false,"rstrip":false,"normalized":false},{"id":4,"special":true,"content":"[MASK]","single_word":false,"lstrip":false,"rstrip":false,"normalized":false}],"normalizer":null,"pre_tokenizer":{"type":"Whitespace"},"post_processor":null,"decoder":null,"model":{"dropout":null,"unk_token":null,"continuing_subword_prefix":null,"end_of_word_suffix":null,"fuse_unk":false,"vocab":{"[UNK]":0,"[CLS]":1,"[SEP]":2,"[PAD]":3,"[MASK]":4,"\u0000":5,"\u0002":6,"\u0003":7,"!":8,"\"":9,"#":10,"$":11,"%":12,"&":13,"'":14,"(":15,")":16,"*":17,"+":18,",":19,"-":20,".":21,"/":22,"0":23,"1":24,"2":25,"3":26,"4":27,"5":28,"6":29,"7":30,"8":31,"9":32,":":33,";":34,"<":35,"=":36,">":37,"?":38,"@":39,"A":40,"B":41,"C":42,"D":43,"E":44,"F":45,"G":46,"H":47,"I":48,"J":49,"K":50,"L":51,"M":52,"N":53,"O":54,"P":55,"Q":56,"R":57,"S":58,"T":59,"U":60,"V":61,"W":62,"X":63,"Y":64,"Z":65,"[":66,"\\":67,"]":68,"^":69,"_":70,"`":71,"a":72,"b":73,"c":74,"d":75,"e":76,"f":77,"g":78,"h":79,"i":80,"j":81,"k":82,"l":83,"m":84,"n":85,"o":86,"p":87,"q":88,"r":89,"s":90,"t":91,"u":92,"v":93,"w":94,"x":95,"y":96,"z":97,"{":98,"|":99,"}":100,"~":101,"":102,"":103,"":104,"":105,"":106,"":107,"¡":108,"¢":109,"£":110,"¤":111,"¥":112,"¦":113,"§":114,"¨":115,"©":116,"ª":117,"«":118,"¬":119,"­":120,"®":121,"°":122,"³":123,"´":124,"·":125,"¹":126,"º":127,"»":128,"¼":129,"½":130,"¾":131,"Â":132,"Ã":133,"Ä":134,"Å":135,"Ç":136,"É":137,"Î":138,"Ñ":139,"Ó":140,"Ô":141,"Ö":142,"×":143,"Ü":144,"ß":145,"à":146,"á":147,"â":148,"ã":149,"ä":150,"å":151,"æ":152,"ç":153,"è":154,"é":155,"ê":156,"ë":157,"ì":158,"í":159,"î":160,"ï":161,"ñ":162,"ò":163,"ó":164,"ô":165,"õ":166,"ö":167,"ø":168,"ù":169,"ú":170,"û":171,"ü":172,"ý":173,"ÿ":174,"ā":175,"ą":176,"ć":177,"Č":178,"č":179,"đ":180,"ē":181,"ė":182,"ę":183,"ě":184,"ğ":185,"Ġ":186,"ī":187,"İ":188,"ı":189,"ł":190,"ń":191,"ō":192,"ő":193,"œ":194,"ř":195,"Ś":196,"ś":197,"Ş":198,"ş":199,"Š":200,"š":201,"Ū":202,"ū":203,"ů":204,"ű":205,"ų":206,"Ż":207,"ż":208,"ž":209,"Ə":210,"Ơ":211,"Ư":212,"ư":213,"ș":214,"Ȧ":215,"ə":216,"ɛ":217,"ɣ":218,"ʁ":219,"ʃ":220,"ʔ":221,"ʕ":222,"ʡ":223,"ʢ":224,"ˈ":225,"˜":226,"ˤ":227,"̂":228,"͞":229,"͟":230,"͵":231,"Ά":232,"Α":233,"Δ":234,"Ε":235,"Κ":236,"Λ":237,"Ο":238,"Τ":239,"Χ":240,"Ω":241,"ά":242,"έ":243,"ή":244,"ί":245,"α":246,"β":247,"γ":248,"δ":249,"ε":250,"η":251,"θ":252,"ι":253,"κ":254,"λ":255,"μ":256,"ν":257,"ο":258,"π":259,"ρ":260,"ς":261,"σ":262,"τ":263,"υ":264,"φ":265,"χ":266,"ψ":267,"ω":268,"ό":269,"ύ":270,"ώ":271,"А":272,"Б":273,"В":274,"Г":275,"Д":276,"Е":277,"Ж":278,"З":279,"И":280,"Й":281,"К":282,"Л":283,"М":284,"Н":285,"О":286,"П":287,"Р":288,"С":289,"Т":290,"У":291,"Ф":292,"Х":293,"Ц":294,"Ч":295,"Ш":296,"Ы":297,"Э":298,"Ю":299,"Я":300,"а":301,"б":302,"в":303,"г":304,"д":305,"е":306,"ж":307,"з":308,"и":309,"й":310,"к":311,"л":312,"м":313,"н":314,"о":315,"п":316,"р":317,"с":318,"т":319,"у":320,"ф":321,"х":322,"ц":323,"ч":324,"ш":325,"щ":326,"ъ":327,"ы":328,"ь":329,"э":330,"ю":331,"я":332,"ё":333,"ї":334,"Қ":335,"қ":336,"ҳ":337,"Ӓ":338,"ӕ":339,"Ӡ":340,"Ӣ":341,"օ":342,"֑":343,"֒":344,"֔":345,"֕":346,"֖":347,"֗":348,"֘":349,"֙":350,"֚":351,"֛":352,"֜":353,"֝":354,"֞":355,"֠":356,"֡":357,"֣":358,"֤":359,"֥":360,"֧":361,"֨":362,"֩":363,"֪":364,"֫":365,"֬":366,"֭":367,"֮":368,"ְ":369,"ֱ":370,"ֲ":371,"ֳ":372,"ִ":373,"ֵ":374,"ֶ":375,"ַ":376,"ָ":377,"ֹ":378,"ֺ":379,"ֻ":380,"ּ":381,"ֽ":382,"־":383,"ֿ":384,"׀":385,"ׁ":386,"ׂ":387,"׃":388,"ׅ":389,"א":390,"ב":391,"ג":392,"ד":393,"ה":394,"ו":395,"ז":396,"ח":397,"ט":398,"י":399,"ך":400,"כ":401,"ל":402,"ם":403,"מ":404,"ן":405,"נ":406,"ס":407,"ע":408,"ף":409,"פ":410,"ץ":411,"צ":412,"ק":413,"ר":414,"ש":415,"ת":416,"ײ":417,"׳":418,"״":419,"،":420,"ء":421,"أ":422,"ؤ":423,"إ":424,"ئ":425,"ا":426,"ب":427,"ة":428,"ت":429,"ث":430,"ج":431,"ح":432,"خ":433,"د":434,"ر":435,"ز":436,"س":437,"ش":438,"ص":439,"ض":440,"ط":441,"ظ":442,"ع":443,"غ":444,"ف":445,"ق":446,"ك":447,"ل":448,"م":449,"ن":450,"ه":451,"و":452,"ى":453,"ي":454,"ُ":455,"ّ":456,"ْ":457,"٠":458,"١":459,"٢":460,"٣":461,"٤":462,"٥":463,"٨":464,"٩":465,"ژ":466,"ک":467,"ی":468,"ߗ":469,"ߦ":470,"ߧ":471,"ं":472,"अ":473,"आ":474,"ई":475,"ऊ":476,"ऑ":477,"औ":478,"क":479,"ग":480,"घ":481,"च":482,"ज":483,"ट":484,"ड":485,"ण":486,"त":487,"थ":488,"द":489,"ध":490,"न":491,"प":492,"ब":493,"भ":494,"म":495,"य":496,"र":497,"ल":498,"व":499,"श":500,"ष":501,"स":502,"ह":503,"ा":504,"ि":505,"ी":506,"ू":507,"े":508,"ै":509,"ॉ":510,"ो":511,"्":512,"ก":513,"ข":514,"ค":515,"ง":516,"จ":517,"ญ":518,"ด":519,"ต":520,"ถ":521,"ท":522,"น":523,"ป":524,"ม":525,"ย":526,"ร":527,"ล":528,"ว":529,"ศ":530,"ส":531,"ห":532,"อ":533,"ะ":534,"ั":535,"า":536,"ำ":537,"ิ":538,"ี":539,"ื":540,"ุ":541,"ู":542,"เ":543,"แ":544,"โ":545,"ใ":546,"ไ":547,"่":548,"้":549,"์":550,"ạ":551,"ẩ":552,"ẫ":553,"Ế":554,"ế":555,"ệ":556,"Ọ":557,"ọ":558,"ổ":559,"Ộ":560,"ộ":561,"ớ":562,"ἀ":563,"ἠ":564,"Ἠ":565,"ἰ":566,"ἶ":567,"Ὁ":568,"ὐ":569,"ὔ":570,"ὖ":571,"ὶ":572,"ὺ":573,"​":574,"‍":575,"‎":576,"‏":577,"‑":578,"–":579,"—":580,"―":581,"‘":582,"’":583,"“":584,"”":585,"„":586,"•":587,"…":588,"‪":589,"‫":590,"‬":591,"‭":592,"‮":593,"′":594,"″":595,"‹":596,"›":597,"⁠":598,"⁡":599,"⁦":600,"⁩":601,"₪":602,"€":603,"№":604,"™":605,"⅛":606,"←":607,"→":608,"↔":609,"↩":610,"⇐":611,"⇒":612,"⇓":613,"−":614,"∘":615,"√":616,"≈":617,"⊂":618,"⋅":619,"─":620,"┣":621,"═":622,"▇":623,"■":624,"▪":625,"▼":626,"▾":627,"◄":628,"●":629,"★":630,"☆":631,"☺":632,"☼":633,"♥":634,"♦":635,"✈":636,"✓":637,"✔":638,"✨":639,"❖":640,"❤":641,"➞":642,"、":643,"。":644,"々":645,"《":646,"》":647,"あ":648,"い":649,"う":650,"え":651,"お":652,"か":653,"が":654,"き":655,"く":656,"け":657,"こ":658,"ご":659,"さ":660,"ざ":661,"し":662,"す":663,"せ":664,"た":665,"だ":666,"ち":667,"っ":668,"て":669,"で":670,"と":671,"ど":672,"な":673,"に":674,"の":675,"は":676,"べ":677,"ほ":678,"ま":679,"め":680,"も":681,"や":682,"よ":683,"ら":684,"り":685,"る":686,"れ":687,"わ":688,"を":689,"ん":690,"ア":691,"イ":692,"エ":693,"ォ":694,"カ":695,"キ":696,"ケ":697,"コ":698,"サ":699,"シ":700,"ジ":701,"ス":702,"タ":703,"チ":704,"ッ":705,"ト":706,"ド":707,"ナ":708,"ノ":709,"バ":710,"ビ":711,"フ":712,"ブ":713,"プ":714,"ボ":715,"マ":716,"ミ":717,"ム":718,"メ":719,"ャ":720,"ュ":721,"ラ":722,"リ":723,"ル":724,"ロ":725,"ン":726,"ー":727,"一":728,"三":729,"上":730,"下":731,"不":732,"与":733,"业":734,"个":735,"中":736,"为":737,"主":738,"丽":739,"久":740,"义":741,"之":742,"九":743,"也":744,"习":745,"书":746,"乱":747,"乳":748,"了":749,"争":750,"事":751,"于":752,"云":753,"亚":754,"些":755,"产":756,"京":757,"亲":758,"人":759,"从":760,"他":761,"代":762,"以":763,"仪":764,"任":765,"企":766,"众":767,"优":768,"会":769,"伝":770,"但":771,"位":772,"体":773,"作":774,"你":775,"使":776,"供":777,"依":778,"価":779,"侥":780,"侯":781,"便":782,"信":783,"候":784,"假":785,"儿":786,"先":787,"光":788,"克":789,"全":790,"公":791,"共":792,"关":793,"兴":794,"其":795,"具":796,"再":797,"冯":798,"决":799,"准":800,"凑":801,"処":802,"出":803,"分":804,"创":805,"初":806,"判":807,"到":808,"制":809,"刷":810,"剔":811,"剩":812,"副":813,"力":814,"功":815,"加":816,"动":817,"努":818,"势":819,"勇":820,"動":821,"勤":822,"化":823,"北":824,"区":825,"半":826,"华":827,"卫":828,"即":829,"历":830,"原":831,"参":832,"及":833,"发":834,"取":835,"变":836,"口":837,"另":838,"只":839,"叫":840,"召":841,"可":842,"台":843,"司":844,"合":845,"同":846,"名":847,"后":848,"向":849,"吵":850,"员":851,"命":852,"和":853,"品":854,"响":855,"商":856,"嗜":857,"器":858,"四":859,"因":860,"团":861,"国":862,"图":863,"圣":864,"在":865,"地":866,"坚":867,"型":868,"城":869,"培":870,"塑":871,"境":872,"增":873,"声":874,"変":875,"外":876,"多":877,"大":878,"天":879,"夫":880,"头":881,"奋":882,"奏":883,"女":884,"她":885,"妇":886,"委":887,"娶":888,"婚":889,"子":890,"孔":891,"孕":892,"学":893,"孩":894,"宁":895,"它":896,"安":897,"完":898,"定":899,"客":900,"家":901,"密":902,"富":903,"察":904,"对":905,"导":906,"将":907,"小":908,"就":909,"层":910,"展":911,"山":912,"工":913,"巨":914,"己":915,"已":916,"带":917,"席":918,"常":919,"干":920,"平":921,"年":922,"并":923,"幸":924,"幼":925,"应":926,"度":927,"廃":928,"建":929,"开":930,"式":931,"引":932,"强":933,"当":934,"形":935,"影":936,"彻":937,"征":938,"径":939,"待":940,"律":941,"得":942,"徴":943,"心":944,"忙":945,"快":946,"怀":947,"怕":948,"性":949,"总":950,"恒":951,"恤":952,"息":953,"恶":954,"惟":955,"惠":956,"意":957,"感":958,"愿":959,"成":960,"我":961,"戻":962,"所":963,"手":964,"打":965,"扩":966,"扰":967,"技":968,"把":969,"抚":970,"抜":971,"択":972,"担":973,"招":974,"拟":975,"拿":976,"持":977,"挑":978,"据":979,"排":980,"掛":981,"接":982,"控":983,"推":984,"描":985,"提":986,"操":987,"擎":988,"改":989,"攻":990,"效":991,"救":992,"教":993,"整":994,"文":995,"斑":996,"斓":997,"料":998,"斥":999,"新":1000,"方":1001,"无":1002,"日":1003,"时":1004,"明":1005,"是":1006,"显":1007,"暂":1008,"暑":1009,"暗":1010,"更":1011,"最":1012,"月":1013,"有":1014,"望":1015,"期":1016,"本":1017,"机":1018,"李":1019,"来":1020,"林":1021,"果":1022,"某":1023,"染":1024,"栄":1025,"标":1026,"样":1027,"梦":1028,"植":1029,"楼":1030,"様":1031,"次":1032,"歌":1033,"止":1034,"正":1035,"步":1036,"歯":1037,"殿":1038,"母":1039,"每":1040,"比":1041,"毕":1042,"民":1043,"気":1044,"永":1045,"求":1046,"没":1047,"治":1048,"活":1049,"流":1050,"测":1051,"济":1052,"海":1053,"淘":1054,"混":1055,"游":1056,"演":1057,"激":1058,"灵":1059,"然":1060,"片":1061,"牙":1062,"物":1063,"特":1064,"状":1065,"狼":1066,"猫":1067,"玛":1068,"玩":1069,"环":1070,"现":1071,"理":1072,"瑟":1073,"甚":1074,"生":1075,"用":1076,"由":1077,"电":1078,"男":1079,"画":1080,"略":1081,"疏":1082,"病":1083,"症":1084,"療":1085,"白":1086,"的":1087,"皮":1088,"盈":1089,"目":1090,"直":1091,"相":1092,"盼":1093,"盾":1094,"省":1095,"看":1096,"着":1097,"睡":1098,"矛":1099,"码":1100,"研":1101,"破":1102,"硬":1103,"确":1104,"磁":1105,"示":1106,"社":1107,"祂":1108,"神":1109,"私":1110,"种":1111,"稣":1112,"空":1113,"突":1114,"窗":1115,"立":1116,"站":1117,"竞":1118,"第":1119,"等":1120,"简":1121,"管":1122,"精":1123,"糟":1124,"紊":1125,"組":1126,"結":1127,"統":1128,"維":1129,"緒":1130,"繁":1131,"繊":1132,"约":1133,"线":1134,"练":1135,"细":1136,"经":1137,"结":1138,"给":1139,"综":1140,"缺":1141,"罪":1142,"置":1143,"美":1144,"羞":1145,"老":1146,"考":1147,"者":1148,"而":1149,"耳":1150,"耶":1151,"聖":1152,"肠":1153,"育":1154,"胃":1155,"能":1156,"脆":1157,"脈":1158,"脑":1159,"自":1160,"至":1161,"致":1162,"般":1163,"良":1164,"色":1165,"节":1166,"花":1167,"范":1168,"茶":1169,"营":1170,"蔽":1171,"薄":1172,"虑":1173,"虽":1174,"血":1175,"行":1176,"術":1177,"表":1178,"被":1179,"裁":1180,"装":1181,"裔":1182,"裕":1183,"製":1184,"西":1185,"要":1186,"观":1187,"规":1188,"视":1189,"解":1190,"誇":1191,"語":1192,"订":1193,"议":1194,"记":1195,"讲":1196,"论":1197,"评":1198,"话":1199,"说":1200,"调":1201,"豊":1202,"買":1203,"質":1204,"责":1205,"贯":1206,"资":1207,"赛":1208,"越":1209,"路":1210,"輸":1211,"转":1212,"载":1213,"辱":1214,"过":1215,"近":1216,"还":1217,"这":1218,"进":1219,"连":1220,"选":1221,"造":1222,"遮":1223,"選":1224,"部":1225,"郭":1226,"都":1227,"采":1228,"里":1229,"重":1230,"量":1231,"钟":1232,"铅":1233,"锋":1234,"长":1235,"闲":1236,"间":1237,"阅":1238,"队":1239,"防":1240,"阳":1241,"院":1242,"除":1243,"陶":1244,"陷":1245,"难":1246,"雷":1247,"需":1248,"静":1249,"非":1250,"面":1251,"革":1252,"類":1253,"领":1254,"颜":1255,"飞":1256,"食":1257,"飾":1258,"養":1259,"马":1260,"骆":1261,"體":1262,"高":1263,"가":1264,"각":1265,"거":1266,"것":1267,"견":1268,"고":1269,"공":1270,"과":1271,"관":1272,"교":1273,"국":1274,"그":1275,"근":1276,"기":1277,"길":1278,"까":1279,"나":1280,"놀":1281,"는":1282,"니":1283,"다":1284,"대":1285,"더":1286,"던":1287,"도":1288,"되":1289,"든":1290,"들":1291,"떠":1292,"또":1293,"라":1294,"람":1295,"렀":1296,"려":1297,"련":1298,"로":1299,"뢰":1300,"료":1301,"를":1302,"름":1303,"리":1304,"림":1305,"마":1306,"막":1307,"만":1308,"많":1309,"멋":1310,"명":1311,"모":1312,"목":1313,"묵":1314,"및":1315,"발":1316,"번":1317,"벽":1318,"보":1319,"부":1320,"비":1321,"사":1322,"상":1323,"생":1324,"서":1325,"석":1326,"성":1327,"수":1328,"스":1329,"습":1330,"시":1331,"신":1332,"실":1333,"십":1334,"아":1335,"않":1336,"어":1337,"얼":1338,"었":1339,"에":1340,"여":1341,"역":1342,"연":1343,"오":1344,"외":1345,"우":1346,"운":1347,"원":1348,"으":1349,"은":1350,"을":1351,"의":1352,"이":1353,"인":1354,"입":1355,"있":1356,"작":1357,"장":1358,"적":1359,"정":1360,"제":1361,"좋":1362,"주":1363,"증":1364,"지":1365,"진":1366,"징":1367,"차":1368,"찼":1369,"찾":1370,"치":1371,"침":1372,"크":1373,"특":1374,"포":1375,"품":1376,"하":1377,"한":1378,"함":1379,"합":1380,"해":1381,"했":1382,"화":1383,"확":1384,"회":1385,"히":1386,"":1387,"":1388,"":1389,"":1390,"":1391,"":1392,"":1393,"":1394,"":1395,"":1396,"朗":1397,"יִ":1398,"ﬠ":1399,"שׁ":1400,"שׂ":1401,"שּׂ":1402,"אַ":1403,"בּ":1404,"גּ":1405,"דּ":1406,"הּ":1407,"וּ":1408,"יּ":1409,"ךּ":1410,"כּ":1411,"מּ":1412,"נּ":1413,"פּ":1414,"צּ":1415,"קּ":1416,"שּ":1417,"תּ":1418,"וֹ":1419,"️":1420,"﻿":1421,"！":1422,"（":1423,"）":1424,"，":1425,"：":1426,"；":1427,"～":1428,"�":1429,"🇦":1430,"🇧":1431,"🇬":1432,"🇮":1433,"🇹":1434,"🇺":1435,"🇾":1436,"🌶":1437,"🍅":1438,"🍆":1439,"🎈":1440,"👈":1441,"💐":1442,"😀":1443,"😃":1444,"😄":1445,"😉":1446,"😍":1447,"😛":1448,"😜":1449,"😡":1450,"😣":1451,"😫":1452,"🙁":1453,"🙂":1454,"🙄":1455,"🙏":1456,"🤒":1457,"🤣":1458,"🤩":1459,"🥒":1460,"ים":1461,"ות":1462,"ור":1463,"ני":1464,"ול":1465,"בי":1466,"של":1467,"רו":1468,"המ":1469,"לי":1470,"את":1471,"נו":1472,"הי":1473,"אי":1474,"רי":1475,"שי":1476,"מו":1477,"מי":1478,"וב":1479,"לה":1480,"די":1481,"או":1482,"בר":1483,"הו":1484,"לא":1485,"על":1486,"חי":1487,"לו":1488,"נה":1489,"תי":1490,"מה":1491,"בו":1492,"שר":1493,"כל":1494,"פי":1495,"ון":1496,"עי":1497,"סי":1498,"חו":1499,"שו":1500,"כי":1501,"טי":1502,"מת":1503,"קו":1504,"פר":1505,"מר":1506,"צי":1507,"קי":1508,"מש":1509,"גי":1510,"תו":1511,"שה":1512,"עו":1513,"נים":1514,"אל":1515,"וי":1516,"בה":1517,"נות":1518,"אח":1519,"זה":1520,"דר":1521,"בע":1522,"מע":1523,"הת":1524,"מס":1525,"אות":1526,"קר":1527,"הר":1528,"הוא":1529,"בל":1530,"וה":1531,"עם":1532,"דו":1533,"אר":1534,"בת":1535,"דה":1536,"פו":1537,"נת":1538,"סו":1539,"מצ":1540,"טר":1541,"גו":1542,"הח":1543,"יו":1544,"הא":1545,"הש":1546,"כו":1547,"הע":1548,"יש":1549,"רות":1550,"רים":1551,"מח":1552,"מים":1553,"אה":1554,"עה":1555,"דים":1556,"בית":1557,"גם":1558,"לק":1559,"רה":1560,"במ":1561,"..":1562,"צו":1563,"טו":1564,"כול":1565,"שים":1566,"רון":1567,"לת":1568,"שת":1569,"ית":1570,"נית":1571,"כת":1572,"בא":1573,"ותר":1574,"למ":1575,"יה":1576,"זו":1577,"בין":1578,"בים":1579,"רת":1580,"לע":1581,"לח":1582,"פה":1583,"מן":1584,"קה":1585,"לב":1586,"פת":1587,"גל":1588,"הס":1589,"מא":1590,"ום":1591,"גד":1592,"הנ":1593,"עד":1594,"הפ":1595,"היה":1596,"בש":1597,"הק":1598,"היא":1599,"כן":1600,"וא":1601,"כה":1602,"הם":1603,"מות":1604,"דע":1605,"בות":1606,"זי":1607,"בור":1608,"פני":1609,"שא":1610,"חד":1611,"מד":1612,"טוב":1613,"כם":1614,"ער":1615,"מק":1616,"נס":1617,"בח":1618,"בק":1619,"20":1620,"מפ":1621,"אם":1622,"שות":1623,"חק":1624,"עות":1625,"ין":1626,"חות":1627,"מחי":1628,"הב":1629,"דות":1630,"כות":1631,"כר":1632,"כך":1633,"כא":1634,"ורי":1635,"ורה":1636,"אש":1637,"לים":1638,"שראל":1639,"הג":1640,"לש":1641,"הצ":1642,"חש":1643,"ספ":1644,"אלי":1645,"אנ":1646,"דרך":1647,"עוד":1648,"המו":1649,"המש":1650,"עים":1651,"פט":1652,"קים":1653,"אני":1654,"ומ":1655,"גר":1656,"צה":1657,"חר":1658,"ולי":1659,"חה":1660,"ברי":1661,"קט":1662,"חת":1663,"דבר":1664,"פור":1665,"יותר":1666,"דם":1667,"לט":1668,"לר":1669,"לות":1670,"ולם":1671,"כים":1672,"בני":1673,"זר":1674,"כמו":1675,"אין":1676,"סט":1677,"שלו":1678,"עת":1679,"ולה":1680,"צר":1681,"נסי":1682,"מחירון":1683,"להי":1684,"כב":1685,"נט":1686,"אבל":1687,"חבר":1688,"רק":1689,"אים":1690,"עצ":1691,"הכ":1692,"עלי":1693,"שנ":1694,"לפ":1695,"וס":1696,"מל":1697,"בכל":1698,"אפ":1699,"בעי":1700,"מור":1701,"אחד":1702,"שלי":1703,"ישראל":1704,"קום":1705,"...":1706,"נר":1707,"בן":1708,"כדי":1709,"\".":1710,"בד":1711,"הז":1712,"בצ":1713,"נג":1714,"בט":1715,"אינ":1716,"חים":1717,"בס":1718,"יי":1719,"פים":1720,"לג":1721,"היו":1722,"00":1723,"ממ":1724,"יכול":1725,"ורים":1726,"תה":1727,"מטר":1728,"201":1729,"מנ":1730,"שב":1731,"--":1732,"צרי":1733,"להת":1734,"טה":1735,"טים":1736,"פס":1737,"לול":1738,"שמ":1739,"בדרך":1740,"ובים":1741,"וק":1742,"צור":1743,"שם":1744,"לך":1745,"הד":1746,"אותו":1747,"מאו":1748,"סף":1749,"ידי":1750,"קת":1751,"השו":1752,"מוד":1753,"ניה":1754,"פות":1755,"שע":1756,"לס":1757,"ולים":1758,"אבי":1759,"בנו":1760,"יות":1761,"ניות":1762,"השי":1763,"חיי":1764,"נד":1765,"וח":1766,"ולא":1767,"אירו":1768,"אופ":1769,"זור":1770,"דת":1771,"שור":1772,"זאת":1773,"סר":1774,"שלא":1775,"לפני":1776,"אחר":1777,"אשר":1778,").":1779,"\",":1780,"מב":1781,"נק":1782,"כמה":1783,"חיים":1784,"מסלול":1785,"גוגל":1786,"אתר":1787,"in":1788,"פול":1789,"תר":1790,"ונ":1791,"אך":1792,"כנ":1793,"יל":1794,"מרחק":1795,"מער":1796,"לפי":1797,"סים":1798,"טובוס":1799,"אוטובוס":1800,"ניתן":1801,"לנו":1802,"אור":1803,"19":1804,"קור":1805,"קילו":1806,"סה":1807,"עבו":1808,"העי":1809,"מדי":1810,"נסיעה":1811,"מכ":1812,"למי":1813,"לצ":1814,"צים":1815,"קות":1816,"מיו":1817,"מפות":1818,"הל":1819,"קילומטר":1820,"שק":1821,"שני":1822,"אמ":1823,"זמן":1824,"אחרי":1825,"ישובים":1826,"ביותר":1827,"הבי":1828,"מג":1829,"חנו":1830,"שוב":1831,"er":1832,"),":1833,"כבר":1834,"אית":1835,"אז":1836,"ולו":1837,"לאחר":1838,"כז":1839,"ובר":1840,"לית":1841,"ברה":1842,"גע":1843,"דור":1844,"פע":1845,"מוש":1846,"ִי":1847,"דש":1848,"מט":1849,"שירות":1850,"ָה":1851,"הה":1852,"פרי":1853,"מית":1854,"כון":1855,"כלו":1856,"בתי":1857,"שית":1858,"להיות":1859,"ַי":1860,"ניים":1861,"כפר":1862,"הט":1863,"רית":1864,"כש":1865,"עור":1866,"תק":1867,"בדי":1868,"החו":1869,"באר":1870,"קרה":1871,"מספר":1872,"תוך":1873,"מאוד":1874,"גור":1875,"גיע":1876,"ניי":1877,"תח":1878,"הדי":1879,"נגד":1880,"נוי":1881,"10":1882,"לכל":1883,"וע":1884,"לד":1885,"שבו":1886,"גים":1887,"יח":1888,"יצ":1889,"תית":1890,"האי":1891,"יע":1892,"סק":1893,"הזה":1894,"ברו":1895,"אמר":1896,"אלו":1897,"האח":1898,"אפשר":1899,"שום":1900,"גה":1901,"on":1902,"אלא":1903,"גן":1904,"קרו":1905,"עבור":1906,"לנ":1907,"חלק":1908,"וְ":1909,"ָּ":1910,"שלה":1911,"שיו":1912,"בוד":1913,"אתם":1914,"אנו":1915,"וד":1916,"היי":1917,"הנו":1918,"שהוא":1919,"רב":1920,"בפני":1921,"היום":1922,"יהו":1923,"גדול":1924,"סת":1925,"מז":1926,"נפ":1927,"שלום":1928,"שיש":1929,"האו":1930,"בעל":1931,"מתו":1932,"בלי":1933,"משפ":1934,"אשו":1935,"בחי":1936,"לכם":1937,"הלי":1938,"ועוד":1939,"פשר":1940,"אֶ":1941,"חל":1942,"ספר":1943,"הצי":1944,"הכל":1945,"ביא":1946,"ניין":1947,"הַ":1948,"המי":1949,"אופן":1950,"בעת":1951,"צת":1952,"קב":1953,"אחת":1954,"מון":1955,"an":1956,"בג":1957,"מצי":1958,"טית":1959,"חוק":1960,"יום":1961,"מרי":1962,"קד":1963,"פרו":1964,"אותה":1965,"מין":1966,"חום":1967,"תיים":1968,"דעת":1969,"שאי":1970,"שלים":1971,"לון":1972,"מרים":1973,"מוצ":1974,"מיוחד":1975,"אתה":1976,"טל":1977,"טב":1978,"פל":1979,"כאשר":1980,"הפר":1981,"עין":1982,"משת":1983,"מיד":1984,"טח":1985,"הרבה":1986,"כאן":1987,"נון":1988,"אלה":1989,"שהו":1990,"צות":1991,"ar":1992,"גות":1993,"קס":1994,"הרי":1995,"הסי":1996,"חז":1997,"רח":1998,"שנים":1999,"לאו":2000,"מעט":2001,"אשון":2002,"בבית":2003,"רוב":2004,"שלנו":2005,"המת":2006,"ביר":2007,"האר":2008,"עוב":2009,"צריך":2010,"ויות":2011,"12":2012,"פש":2013,"קיי":2014,"קול":2015,"ציה":2016,"דוד":2017,"UU":2018,"החי":2019,"כתב":2020,"כלי":2021,"ִּ":2022,"el":2023,"200":2024,"קל":2025,"הכי":2026,"מנו":2027,"אס":2028,"גיה":2029,"טיפול":2030,"גש":2031,"es":2032,"אותם":2033,"ואי":2034,"צד":2035,"וַי":2036,"הגי":2037,"רום":2038,"המשפט":2039,"לוי":2040,"at":2041,"באי":2042,"ובה":2043,"תוח":2044,"יר":2045,"למע":2046,"ללא":2047,"11":2048,"עדי":2049,"בוע":2050,"שׁ":2051,"לקבל":2052,"כנס":2053,"שנה":2054,"כד":2055,"נש":2056,"מנה":2057,"הן":2058,"לל":2059,"ביל":2060,"באופן":2061,"בסי":2062,"האם":2063,"קשר":2064,"רושלים":2065,"סוף":2066,"במי":2067,"קיים":2068,"ארי":2069,"מול":2070,"טוח":2071,"בלו":2072,"רבים":2073,"אנחנו":2074,"דברים":2075,"צל":2076,"נע":2077,"הרו":2078,"קרי":2079,"אביב":2080,"זכ":2081,"מסו":2082,"צועי":2083,"קרים":2084,"כלל":2085,"en":2086,"שמו":2087,"פעי":2088,"פועל":2089,"מכי":2090,"הקו":2091,"רונות":2092,"ליה":2093,"דיו":2094,"במש":2095,"וגם":2096,"פשו":2097,"מלא":2098,"גון":2099,"פילו":2100,"al":2101,"בנ":2102,"הדר":2103,"היית":2104,"ְּ":2105,"אדם":2106,"המר":2107,"להם":2108,"השופט":2109,"לעשות":2110,"שיר":2111,"מתן":2112,"שתי":2113,"ברים":2114,"פעם":2115,"מרכז":2116,"נח":2117,"אינטר":2118,"בחו":2119,"----":2120,"לְ":2121,"אף":2122,"שכ":2123,"מוס":2124,"רא":2125,"להו":2126,"נשים":2127,"המס":2128,".\"":2129,"ותי":2130,"ליון":2131,"יד":2132,"בשי":2133,"בישראל":2134,"ורות":2135,"אנשים":2136,"בודה":2137,"נן":2138,"באמצ":2139,"דית":2140,"החלט":2141,"שרד":2142,"דין":2143,"צב":2144,"למצ":2145,"or":2146,"גבו":2147,"במה":2148,"נראה":2149,"ארו":2150,"וכ":2151,"חשוב":2152,"מערכת":2153,"החברה":2154,"וש":2155,"כולל":2156,"מקו":2157,"אֲ":2158,"מדובר":2159,"כני":2160,"וני":2161,"בעלי":2162,"חב":2163,"תוצ":2164,"הספר":2165,"ספים":2166,"צע":2167,"יהיה":2168,"שראלי":2169,"התי":2170,"דינה":2171,"מחה":2172,"מקום":2173,"מני":2174,"יס":2175,"הרב":2176,"רבות":2177,"חור":2178,"גת":2179,"כנית":2180,"צוע":2181,"לעי":2182,"חס":2183,"לדים":2184,"קבל":2185,"במס":2186,"עס":2187,"המשי":2188,"אינו":2189,"הפי":2190,"מאי":2191,"גיל":2192,"אומר":2193,"הייתה":2194,"תל":2195,"מנת":2196,"בהם":2197,"עבודה":2198,"מחו":2199,"פתח":2200,"ועד":2201,"טרי":2202,"גול":2203,"15":2204,"עַ":2205,"אשונה":2206,"איך":2207,"והמ":2208,"גוף":2209,"וּ":2210,"חוב":2211,"התק":2212,"עליו":2213,"ובע":2214,"טע":2215,"משי":2216,"נם":2217,"נוס":2218,"פקי":2219,"ֵי":2220,"גרת":2221,"מצא":2222,"משפט":2223,"דרי":2224,"לשי":2225,"שמי":2226,"טת":2227,"מקצועי":2228,"ואת":2229,"קלי":2230,"דן":2231,"קשה":2232,"בהת":2233,"ra":2234,"אב":2235,"בלבד":2236,"נוע":2237,"רט":2238,"ממש":2239,"תע":2240,"אחרים":2241,"הבית":2242,"אג":2243,"מונה":2244,"באו":2245,"בתו":2246,"זק":2247,"בול":2248,"ביום":2249,"בשל":2250,"שונים":2251,"דל":2252,"ַּ":2253,"במקום":2254,"ראש":2255,"שומ":2256,"טרה":2257,"העולם":2258,"ריה":2259,"באמצעות":2260,"כפי":2261,"שלכם":2262,"לבי":2263,"צוב":2264,"העו":2265,"כס":2266,"טיים":2267,"בעולם":2268,"שאני":2269,"14":2270,"שבי":2271,"חיל":2272,"עמ":2273,"18":2274,"it":2275,"גלי":2276,"פחות":2277,"מרו":2278,"פשוט":2279,"גני":2280,"מנות":2281,"שהם":2282,"פון":2283,"שלהם":2284,"נאי":2285,"רצ":2286,"os":2287,"חברת":2288,"לאי":2289,"קיר":2290,"לבית":2291,"עבר":2292,"עוץ":2293,"שלך":2294,"חדש":2295,"גיש":2296,"תקו":2297,"תיק":2298,"בלתי":2299,"קבו":2300,"משמע":2301,"אֵ":2302,"יצי":2303,"מִ":2304,"תת":2305,"30":2306,"חוד":2307,"הול":2308,"ומו":2309,"למר":2310,"בּ":2311,"יוצ":2312,"המק":2313,"כיר":2314,"עלות":2315,"טות":2316,"ונות":2317,"שומרון":2318,"סטי":2319,"היר":2320,"הראשון":2321,"היתה":2322,"מבו":2323,"בכ":2324,"הָ":2325,"ובי":2326,"התו":2327,"מכל":2328,"היהו":2329,"המשך":2330,"שלם":2331,"ра":2332,"קטי":2333,"למה":2334,"מיי":2335,"מנים":2336,"לחי":2337,"לאור":2338,"אינטרנט":2339,"אמי":2340,"רבי":2341,"המח":2342,"!!":2343,"שְ":2344,"הזו":2345,"רוצה":2346,"צוות":2347,"הסו":2348,"מתי":2349,"לקו":2350,"שרי":2351,"הור":2352,"פרס":2353,"לצי":2354,"עבודות":2355,"שרה":2356,"והת":2357,"אן":2358,"St":2359,"סוק":2360,"הבא":2361,"המער":2362,"באתר":2363,"חם":2364,"נטי":2365,"מוק":2366,"ותו":2367,"תחו":2368,"מיים":2369,"יודע":2370,"כרטי":2371,"ль":2372,"שֶ":2373,"שהיא":2374,"צורך":2375,"סבי":2376,"בעים":2377,"אֶת":2378,"בקר":2379,"13":2380,"חלט":2381,"שמע":2382,"ic":2383,"to":2384,"שבת":2385,"בפ":2386,"כולם":2387,"השני":2388,"בז":2389,"העיר":2390,"ידע":2391,"ספק":2392,"ולוגי":2393,"וון":2394,"במו":2395,"גוון":2396,"ועל":2397,"דול":2398,"בתחום":2399,"אותי":2400,"חול":2401,"פוי":2402,"המע":2403,"בארץ":2404,"במיוחד":2405,"קרני":2406,"דוג":2407,"פק":2408,"ֶר":2409,"רע":2410,"יְ":2411,"50":2412,"הכנס":2413,"ילדים":2414,"דוע":2415,"דרה":2416,"זים":2417,"לום":2418,"אירוע":2419,"שוק":2420,"ִים":2421,"אולי":2422,"שול":2423,"ли":2424,"לראות":2425,"שמת":2426,"חברה":2427,"מך":2428,"מתוך":2429,"אַ":2430,"מכו":2431,"כתוב":2432,"עצמו":2433,"וֹ":2434,"ֶּ":2435,"להשת":2436,"ההת":2437,"משהו":2438,"D7":2439,"צבי":2440,"',":2441,"זם":2442,"בנה":2443,"חבי":2444,"כשיו":2445,"עיר":2446,"פולי":2447,"שרת":2448,"נשי":2449,"טור":2450,"טובה":2451,"המדינה":2452,"במהלך":2453,"פית":2454,"הארץ":2455,"נוספים":2456,"מסי":2457,"שיי":2458,"פיה":2459,"2018":2460,"מידע":2461,"מצב":2462,"ֹּ":2463,"נוך":2464,"רְ":2465,"החל":2466,"il":2467,"16":2468,"משחק":2469,"מלי":2470,"היסט":2471,"והוא":2472,"פסי":2473,"משה":2474,"ויי":2475,"להר":2476,"זרת":2477,"ко":2478,"שאין":2479,"ויר":2480,"הני":2481,"הים":2482,"וכן":2483,"מעו":2484,"פיק":2485,"מיני":2486,"אפילו":2487,"שֶׁ":2488,"קצי":2489,"שבים":2490,"ביט":2491,"תמיד":2492,"שבע":2493,"חברות":2494,"נתי":2495,"שרות":2496,"is":2497,"17":2498,"הוד":2499,"מהמ":2500,"ומת":2501,"אינם":2502,"ריות":2503,"לסי":2504,"לפר":2505,"לחו":2506,"עשו":2507,"לכ":2508,"et":2509,"סות":2510,"הוצ":2511,"שבה":2512,"למצוא":2513,"צח":2514,"תכ":2515,"הישראלי":2516,"גדולה":2517,"נא":2518,"אָ":2519,"מם":2520,"הזמן":2521,"שעות":2522,"רָ":2523,"om":2524,"בשנת":2525,"אד":2526,"יחד":2527,"בצורה":2528,"כוח":2529,"יים":2530,"רוצים":2531,"לכך":2532,"און":2533,"הופ":2534,"הדין":2535,"בורה":2536,"ווי":2537,"יִ":2538,"זרים":2539,"וו":2540,"בון":2541,"משו":2542,"החיים":2543,"דרת":2544,"as":2545,"איי":2546,"פלי":2547,"פא":2548,"החלטה":2549,"ומה":2550,"בקש":2551,"UUUU":2552,"חן":2553,"בזמן":2554,"המשפ":2555,"יכולים":2556,"he":2557,"קש":2558,"כמובן":2559,"מכר":2560,"אצ":2561,"נקו":2562,"לן":2563,"שהת":2564,"מאז":2565,"שורת":2566,"ךְ":2567,"ולכן":2568,"כיצד":2569,"פתי":2570,"ing":2571,"קני":2572,"סרט":2573,"במח":2574,"רונה":2575,"לֹ":2576,"אישי":2577,"סית":2578,"בתוך":2579,"העבודה":2580,"ניהול":2581,"אירועים":2582,"000":2583,"בגי":2584,"יקט":2585,"איכות":2586,"מוך":2587,"השנה":2588,"כח":2589,"רוני":2590,"אוכל":2591,"הנת":2592,"לעו":2593,"שימוש":2594,"רבה":2595,"הקי":2596,"ed":2597,"ערך":2598,"מאות":2599,"ברת":2600,"בגל":2601,"לגבי":2602,"הייתי":2603,"פן":2604,"אחרת":2605,"ויה":2606,"ציבור":2607,"קרא":2608,"פרט":2609,"ולות":2610,"בְּ":2611,"ונים":2612,"קצת":2613,"רוק":2614,"האתר":2615,"וריה":2616,"מהי":2617,"25":2618,"נור":2619,"איש":2620,"פעילות":2621,"am":2622,"עיף":2623,"נויים":2624,"בלים":2625,"מבי":2626,"חייב":2627,"מערכות":2628,"מבר":2629,"משרד":2630,"נדר":2631,"מוג":2632,"חלו":2633,"במסגרת":2634,"שונות":2635,"וכל":2636,"מיות":2637,"להע":2638,"וג":2639,"בוקר":2640,"ברית":2641,"בטי":2642,"עדיין":2643,"הנה":2644,"ורט":2645,"מונות":2646,"קוד":2647,"האדם":2648,"ורת":2649,"בחר":2650,"ֵּ":2651,"מגי":2652,"עתי":2653,"לָ":2654,"דומה":2655,"תוכלו":2656,"בכי":2657,"אתי":2658,"מאפשר":2659,"ימים":2660,"נוסף":2661,"ֹת":2662,"למו":2663,"שנות":2664,"כיום":2665,"שזה":2666,"סיון":2667,"העוב":2668,"מדינת":2669,"קרובים":2670,"תיות":2671,"משלה":2672,"re":2673,"ראה":2674,"החד":2675,"בְ":2676,"נכון":2677,"עולה":2678,"תנו":2679,"'.":2680,"אינה":2681,"ירושלים":2682,"דום":2683,"הפו":2684,"שאר":2685,"קרק":2686,"בקשה":2687,"מטי":2688,"הדבר":2689,"רפו":2690,"תא":2691,"רוח":2692,"שימה":2693,"באמת":2694,"בתל":2695,"מהם":2696,"מצו":2697,"לכן":2698,"ולוגיה":2699,"בצע":2700,"גרי":2701,"מודים":2702,"בעצ":2703,"למד":2704,"יהם":2705,"צוי":2706,"סיף":2707,"רג":2708,"כונה":2709,"זל":2710,"עיצוב":2711,"שהיה":2712,"מודי":2713,"24":2714,"הראשונה":2715,"בוק":2716,"אולם":2717,"иль":2718,"לקרו":2719,"מלח":2720,"למרות":2721,"לסטי":2722,"עכשיו":2723,"עמי":2724,"נצי":2725,"גלים":2726,"תוצאה":2727,"עז":2728,"חרי":2729,"עולם":2730,"סיפור":2731,"חשב":2732,"ךָ":2733,"כמעט":2734,"שנת":2735,"מְ":2736,"סום":2737,"ברות":2738,"cl":2739,"להגיע":2740,"גישה":2741,"כזה":2742,"ליך":2743,"וצ":2744,"ion":2745,"זהו":2746,"בירושלים":2747,"бли":2748,"ליח":2749,"וזה":2750,"שרים":2751,"התח":2752,"зко":2753,"גרים":2754,"ונה":2755,"פיי":2756,"שירותי":2757,"близко":2758,"המא":2759,"תונים":2760,"בכלל":2761,"כבי":2762,"שקי":2763,"הגדול":2764,"חית":2765,"דרות":2766,"Из":2767,"בוא":2768,"יְהו":2769,"אצל":2770,"שרו":2771,"יעקב":2772,"קבות":2773,"אט":2774,"ואני":2775,"גוד":2776,"כנה":2777,"מהו":2778,"הציבור":2779,"שְׁ":2780,"טון":2781,"פנים":2782,"Изра":2783,"ch":2784,"מעלה":2785,"נדי":2786,"למשל":2787,"Израиль":2788,"ניבר":2789,"בעיקר":2790,"הלו":2791,"ממנו":2792,"להצ":2793,"טיות":2794,"דוק":2795,"מַ":2796,"ורק":2797,"בפי":2798,"לדעת":2799,"כדאי":2800,"פיע":2801,"הברי":2802,"לקרוא":2803,"ומי":2804,"בעה":2805,"רכב":2806,"גיות":2807,"ואם":2808,"טחון":2809,"צרים":2810,"פרק":2811,"כזי":2812,"ערו":2813,"Is":2814,"זון":2815,"מלו":2816,"הילדים":2817,"לבין":2818,"הער":2819,"לעצ":2820,"בגלל":2821,"מבחי":2822,"יהודה":2823,"ליי":2824,"ראי":2825,"ad":2826,"כרת":2827,"למח":2828,"קית":2829,"יצחק":2830,"מרת":2831,"רמת":2832,"מורה":2833,"ברק":2834,"חדר":2835,"נהל":2836,"מסת":2837,"זית":2838,"טין":2839,"דק":2840,"מעל":2841,"עֲ":2842,"קין":2843,"שלושה":2844,"בנושא":2845,"שלב":2846,"השת":2847,"בנוסף":2848,"ענ":2849,"שמח":2850,"קוח":2851,"rael":2852,"יחי":2853,"סור":2854,"סיה":2855,"להח":2856,"נאים":2857,"ביעה":2858,"עושה":2859,"גדולים":2860,"ִּי":2861,"בדיוק":2862,"עית":2863,"חיר":2864,"דרו":2865,"קרית":2866,"ויש":2867,"ציון":2868,"כבים":2869,"שעה":2870,"ישי":2871,"עָ":2872,"במקרה":2873,"us":2874,"פוס":2875,"בסו":2876,"דירה":2877,"וים":2878,"פעל":2879,"שכל":2880,"העליון":2881,"שאל":2882,"דיה":2883,"כרטיס":2884,"לקר":2885,"עול":2886,"ניינים":2887,"שיים":2888,"טובים":2889,"יפו":2890,"לוק":2891,"Israel":2892,"ֶם":2893,"הטי":2894,"מיה":2895,"הרצ":2896,"עדה":2897,"מומל":2898,"עלה":2899,"ובל":2900,"חוץ":2901,"חדשות":2902,"עשי":2903,"אתרים":2904,"ראו":2905,"מעבר":2906,"בעיר":2907,"גבוה":2908,"גבי":2909,"כנים":2910,"ot":2911,"יב":2912,"מוע":2913,"שובה":2914,"תלמי":2915,"נושא":2916,"יכולה":2917,"כנת":2918,"סד":2919,"ol":2920,"ביו":2921,"השק":2922,"כבוד":2923,"בהתאם":2924,"בלה":2925,"סל":2926,"ספי":2927,"כום":2928,"ניברסי":2929,"השלי":2930,"גיעה":2931,"כּ":2932,"ניק":2933,"לאה":2934,"השופטת":2935,"ose":2936,"לֶ":2937,"מצד":2938,"עומד":2939,"נחנו":2940,"שמה":2941,"ולד":2942,"אחריות":2943,"הצד":2944,"שָ":2945,"ניר":2946,"תם":2947,"תהיה":2948,"40":2949,"דיר":2950,"נטים":2951,"פקיד":2952,"בקי":2953,"קטן":2954,"קן":2955,"ur":2956,"סיי":2957,"וכי":2958,"דקות":2959,"נמצ":2960,"בהי":2961,"דורי":2962,"האחרון":2963,"משום":2964,"כהן":2965,"אֶל":2966,"למש":2967,"להג":2968,"פסק":2969,"ראשון":2970,"אילו":2971,"אותנו":2972,"לתת":2973,"כבת":2974,"רשת":2975,"פייה":2976,"זיה":2977,"טבע":2978,"אום":2979,"משתמש":2980,"טכנ":2981,"כגון":2982,"כדורי":2983,"המשת":2984,"עילות":2985,"דיים":2986,"ככל":2987,"בעקבות":2988,"לאומי":2989,"במשך":2990,"נמצא":2991,"גיד":2992,"עזר":2993,"תיי":2994,"דעות":2995,"ורו":2996,"ומש":2997,"סקים":2998,"וחי":2999,"נכ":3000,"נצ":3001,"סוי":3002,"סטר":3003,"ליל":3004,"קופה":3005,"הליך":3006,"וקא":3007,"יפה":3008,"ברור":3009,"גז":3010,"הדברים":3011,"שמש":3012,"ובות":3013,"גדל":3014,"משמעות":3015,"זכויות":3016,"יעוץ":3017,"עשה":3018,"מנם":3019,"im":3020,"וכו":3021,"הכו":3022,"שח":3023,"מיליון":3024,"דווקא":3025,"תּ":3026,"ושי":3027,"סם":3028,"היחי":3029,"נתן":3030,"ובעת":3031,"השלום":3032,"מפי":3033,"ספות":3034,"בעו":3035,"נין":3036,"ואף":3037,"בבי":3038,"תג":3039,"עיון":3040,"להס":3041,"ציוד":3042,"כונים":3043,"מאד":3044,"עליה":3045,"close":3046,"הקשור":3047,"ואז":3048,"ליט":3049,"שווי":3050,"הסרט":3051,"בכך":3052,"ימי":3053,"טום":3054,"אִ":3055,"במרכז":3056,"פוש":3057,"סוג":3058,"כתי":3059,"60":3060,"קף":3061,"באזור":3062,"22":3063,"חתי":3064,"מזה":3065,"הלב":3066,"נז":3067,"מדה":3068,"נסה":3069,"--------":3070,"הדרך":3071,"כנות":3072,"ציא":3073,"נָ":3074,"המקו":3075,"הינו":3076,"שדה":3077,"מחיר":3078,"חשי":3079,"בוש":3080,"חמי":3081,"יָ":3082,"הממשלה":3083,"לחה":3084,"מדים":3085,"לוב":3086,"חיות":3087,"מגני":3088,"האל":3089,"למס":3090,"ניו":3091,"דברי":3092,"לז":3093,"שקל":3094,"אמֶר":3095,"אֵל":3096,"כלים":3097,"פעמים":3098,"בוצה":3099,"כשה":3100,"האלה":3101,"אוה":3102,"לאורך":3103,"ביי":3104,"לילה":3105,"אנשי":3106,"פעולה":3107,"עץ":3108,"בקו":3109,"לתו":3110,"פרטי":3111,"le":3112,"ערב":3113,"בסיס":3114,"חילת":3115,"לגי":3116,"וחו":3117,"כולו":3118,"אק":3119,"לחץ":3120,"אבר":3121,"לאר":3122,"כור":3123,"שנו":3124,"מוצרים":3125,"ואין":3126,"ירי":3127,"ניצ":3128,"אליו":3129,"לביא":3130,"שגם":3131,"להצי":3132,"משפחה":3133,"80":3134,"צריכים":3135,"יחס":3136,"Ha":3137,"לזה":3138,"זיק":3139,"100":3140,"לקי":3141,"תים":3142,"מתמחה":3143,"נסיון":3144,"לאות":3145,"ent":3146,"שכן":3147,"מצוי":3148,"יוסף":3149,"23":3150,"ניהם":3151,"החדש":3152,"גבוהה":3153,"דני":3154,"ובעים":3155,"לכי":3156,"ינו":3157,"מאר":3158,"וַיֹּ":3159,"הגיע":3160,"שהמ":3161,"תחומי":3162,"גלות":3163,"הגר":3164,"הפועל":3165,"חקי":3166,"מגוון":3167,"חשמל":3168,"מיכה":3169,"תרו":3170,"עושים":3171,"זיקה":3172,"ונו":3173,"טבעי":3174,"עובד":3175,"ומע":3176,"המשיך":3177,"פעה":3178,"ולת":3179,"הקט":3180,"גב":3181,"פוך":3182,"לצד":3183,"iv":3184,"אחי":3185,"תחת":3186,"כלומר":3187,"טק":3188,"מכים":3189,"שיא":3190,"חיפה":3191,"סטו":3192,"המד":3193,"מהר":3194,"לבצע":3195,"חדשה":3196,"הכנסת":3197,"ההס":3198,"70":3199,"הוב":3200,"טיי":3201,"כסף":3202,"חומרים":3203,"למעשה":3204,"חדשים":3205,"ir":3206,"שלמה":3207,"אֲשֶׁ":3208,"ורך":3209,"מום":3210,"חילה":3211,"כוי":3212,"בשם":3213,"ָּה":3214,"הזאת":3215,"ואח":3216,"קודם":3217,"שלוש":3218,"עסק":3219,"עניין":3220,"גום":3221,"האחרונות":3222,"המשפחה":3223,"ָר":3224,"פיתוח":3225,"סוגי":3226,"21":3227,"רצי":3228,"חומרי":3229,"הפרו":3230,"אֲשֶׁר":3231,"רכי":3232,"90":3233,"במר":3234,"ואה":3235,"ביטוח":3236,"פג":3237,"בנות":3238,"גרו":3239,"לפחות":3240,"הילה":3241,"ספורט":3242,"ההו":3243,"סקי":3244,"ליות":3245,"לבד":3246,"עיל":3247,"יְהוָה":3248,"פתרון":3249,"כית":3250,"לווי":3251,"שט":3252,"הרכב":3253,"מכדורי":3254,"כלה":3255,"המיו":3256,"עליהם":3257,"דמו":3258,"נרחב":3259,"ביה":3260,"מכן":3261,"שון":3262,"עיסוק":3263,"השירות":3264,"השנים":3265,"והיא":3266,"להבין":3267,"המקום":3268,"מחים":3269,"ספרי":3270,"וריות":3271,"אזר":3272,"הודעה":3273,"עובדים":3274,"נייה":3275,"ייטב":3276,"קוחות":3277,"היינו":3278,"בעזרת":3279,"חילו":3280,"לומר":3281,"כאמור":3282,"גרם":3283,"לילדים":3284,"פיים":3285,"במידה":3286,"מומלץ":3287,"כמות":3288,"ליד":3289,"and":3290,"דולר":3291,"הגוף":3292,"ירה":3293,"ארץ":3294,"העצ":3295,"הקר":3296,"מּ":3297,"השבוע":3298,"תוצאות":3299,"ro":3300,"חברי":3301,"שאתם":3302,"בירה":3303,"אתכם":3304,"לקת":3305,"מייטב":3306,"''":3307,"התורה":3308,"כאלה":3309,"בנושאי":3310,"רש":3311,"היסטוריה":3312,"עַל":3313,"המצ":3314,"בינו":3315,"סון":3316,"ערי":3317,"מקור":3318,"ען":3319,"מילי":3320,"לקחת":3321,"זוג":3322,"נֵי":3323,"סעיף":3324,"עמד":3325,"בילה":3326,"איר":3327,"שונה":3328,"בתיק":3329,"עיה":3330,"פרד":3331,"רוש":3332,"התובע":3333,"חוז":3334,"תהליך":3335,"חודשים":3336,"הדו":3337,"מינים":3338,"הראשו":3339,"רונים":3340,"כוש":3341,"ללמוד":3342,"להשתמש":3343,"גוש":3344,"לעומת":3345,"לטי":3346,"ביקור":3347,"וית":3348,"ופ":3349,"אלף":3350,"וַיֹּאמֶר":3351,"ומס":3352,"טלי":3353,"38":3354,"השל":3355,"לכפר":3356,"המרכז":3357,"קציות":3358,"מעי":3359,"שחק":3360,"זרה":3361,"החוק":3362,"נסו":3363,"המידע":3364,"והר":3365,"כנו":3366,"משל":3367,"עמים":3368,"חתו":3369,"לפון":3370,"טרו":3371,"שלוח":3372,"בעיות":3373,"ספרים":3374,"שָׁ":3375,"ни":3376,"יהיו":3377,"מעור":3378,"פרים":3379,"פרויקט":3380,"קוי":3381,"שאלה":3382,"בנק":3383,"זרי":3384,"מפני":3385,"העתי":3386,"הוּ":3387,"בהחלט":3388,"צוני":3389,"מסוי":3390,"כולת":3391,"לשם":3392,"המבו":3393,"מורים":3394,"איזה":3395,"בקשת":3396,"רחב":3397,"26":3398,"אבן":3399,"יסו":3400,"סקר":3401,"אמת":3402,"להלן":3403,"אירופה":3404,"חַ":3405,"דירות":3406,"עסקים":3407,"בסוף":3408,"ההי":3409,"ירו":3410,"שג":3411,"אחרות":3412,"28":3413,"חֲ":3414,"חצי":3415,"שאנחנו":3416,"אמרי":3417,"ניסיון":3418,"בינ":3419,"דיא":3420,"מתח":3421,"מקרני":3422,"27":3423,"ספת":3424,"פך":3425,"ברא":3426,"ישראלי":3427,"ומח":3428,"מלביא":3429,"בחן":3430,"מגיע":3431,"פשרות":3432,"נחש":3433,"ארד":3434,"ארגו":3435,"כרי":3436,"לַ":3437,"פרה":3438,"דוש":3439,"שש":3440,"ac":3441,"אול":3442,"שירים":3443,"ארה":3444,"כונות":3445,"עצמה":3446,"לצורך":3447,"מרה":3448,"לאח":3449,"חברים":3450,"לקראת":3451,"וכך":3452,"מץ":3453,"לעמוד":3454,"שירותים":3455,"לבר":3456,"תפי":3457,"כין":3458,"id":3459,"לקוחות":3460,"199":3461,"of":3462,"ליצור":3463,"מקבל":3464,"לוח":3465,"נכנס":3466,"ציאות":3467,"הכול":3468,"ממשי":3469,"הירות":3470,"הבר":3471,"בידי":3472,"בעוד":3473,"בפר":3474,"em":3475,"לִ":3476,"תש":3477,"רוץ":3478,"תוף":3479,"שהי":3480,"לחמה":3481,"מאת":3482,"ממה":3483,"פשי":3484,"המים":3485,"בקרב":3486,"קהל":3487,"בטו":3488,"אלקט":3489,"חסי":3490,"קורי":3491,"לויות":3492,"טיין":3493,"פתחות":3494,"אטר":3495,"חשבון":3496,"ונסיון":3497,"ביץ":3498,"ביבה":3499,"דמי":3500,"שינוי":3501,"החינוך":3502,"הרא":3503,"ונת":3504,"ממתן":3505,"זרח":3506,"מנהל":3507,"ויד":3508,"קאי":3509,"בזה":3510,"ממו":3511,"סיקה":3512,"אותן":3513,"כנראה":3514,"מיום":3515,"לחלו":3516,"למעלה":3517,"ייחו":3518,"יג":3519,"פלו":3520,"שמן":3521,"יודעים":3522,"דון":3523,"לם":3524,"כלפי":3525,"מפו":3526,"ציר":3527,"2011":3528,"ֶה":3529,"מדוע":3530,"וט":3531,"מונים":3532,"55":3533,"ag":3534,"דרים":3535,"האמרי":3536,"נאות":3537,"מראש":3538,"שפי":3539,"בעיה":3540,"מאח":3541,"שעל":3542,"היהודי":3543,"אישית":3544,"החדשה":3545,"ut":3546,"מָ":3547,"בשנים":3548,"עדות":3549,"מראה":3550,"התר":3551,"וז":3552,"להק":3553,"חודש":3554,"תיקון":3555,"והי":3556,"שׂ":3557,"2012":3558,"ציות":3559,"האור":3560,"יק":3561,"בראש":3562,"סטים":3563,"בטון":3564,"לֹא":3565,"נוק":3566,"לשמור":3567,"מנית":3568,"ביות":3569,"להז":3570,"קיימים":3571,"רואה":3572,"אמנם":3573,"במע":3574,"גבעת":3575,"דלת":3576,"טבח":3577,"סול":3578,"הללו":3579,"צא":3580,"קיבל":3581,"הארי":3582,"בניה":3583,"תרבות":3584,"בודות":3585,"שאת":3586,"אפשרות":3587,"ig":3588,"אמה":3589,"הטוב":3590,"לדי":3591,"יז":3592,"זין":3593,"2017":3594,"תור":3595,"נוספת":3596,"עיקר":3597,"גודל":3598,"לבן":3599,"צבע":3600,"תורה":3601,"בעבר":3602,"הצדדים":3603,"ושל":3604,"דרכים":3605,"בקשים":3606,"בנים":3607,"תודה":3608,"נְ":3609,"עורכי":3610,"העל":3611,"סג":3612,"ברשת":3613,"ברחבי":3614,"צריכה":3615,"שפ":3616,"ביצוע":3617,"מספיק":3618,"בשביל":3619,"לפרטים":3620,"ההצ":3621,"כדור":3622,"צעי":3623,"ביעות":3624,"קירות":3625,"באותו":3626,"מוצרי":3627,"2016":3628,"יהודי":3629,"מֵ":3630,"רוך":3631,"למות":3632,"יסבוק":3633,"מסר":3634,"צוף":3635,"בֶּ":3636,"הבו":3637,"טיה":3638,"במק":3639,"ליף":3640,"צית":3641,"והו":3642,"קם":3643,"נתה":3644,"שיווק":3645,"הנתבעת":3646,"05":3647,"נוּ":3648,"ריים":3649,"קיימת":3650,"un":3651,"מזו":3652,"החבר":3653,"לבחור":3654,"דף":3655,"וסי":3656,"למת":3657,"מוז":3658,"מדו":3659,"קפה":3660,"מכת":3661,"עורך":3662,"אכן":3663,"שן":3664,"נווה":3665,"שיער":3666,"שיות":3667,"והם":3668,"בשנה":3669,"שמואל":3670,"קבוצת":3671,"עקב":3672,"כולנו":3673,"הזד":3674,"אבו":3675,"בצי":3676,"מחדש":3677,"לעולם":3678,"XX":3679,"חושב":3680,"עמו":3681,"תמונות":3682,"המפ":3683,"שתו":3684,"עונה":3685,"אלפי":3686,"עצמי":3687,"הכר":3688,"מֹ":3689,"מצאו":3690,"קטנים":3691,"בְּ":3692,"ניס":3693,"כבד":3694,"קוס":3695,"זיר":3696,"בטח":3697,"השימוש":3698,"אברהם":3699,"ברחוב":3700,"החש":3701,"זיהו":3702,"פורים":3703,"משפחת":3704,"שאינו":3705,"ורד":3706,"לעבוד":3707,"המשחק":3708,"ופי":3709,"ер":3710,"בוי":3711,"אותך":3712,"המוצר":3713,"למען":3714,"ריית":3715,"הוג":3716,"חיו":3717,"כללי":3718,"גית":3719,"הישראלית":3720,"לבני":3721,"UUUUUUUU":3722,"יתכן":3723,"ממנה":3724,"הִ":3725,"לדבר":3726,"טיח":3727,"בהן":3728,"בגין":3729,"חָ":3730,"09":3731,"נתו":3732,"רפואי":3733,"הטיפול":3734,"עון":3735,"שורים":3736,"לידי":3737,"דרש":3738,"למקום":3739,"מסוג":3740,"משות":3741,"07":3742,"חג":3743,"לכו":3744,"איטום":3745,"התובעת":3746,"כתבה":3747,"מנע":3748,"ומר":3749,"שכר":3750,"נתבעים":3751,"קבלת":3752,"גרות":3753,"להמשיך":3754,"מקרה":3755,"בעניין":3756,"גוע":3757,"כנגד":3758,"רֶ":3759,"ודאי":3760,"פרסם":3761,"בדו":3762,"בנג":3763,"דמות":3764,"כירה":3765,"הביטוח":3766,"יהודים":3767,"שהיו":3768,"משך":3769,"קוב":3770,"להביא":3771,"עלים":3772,"שלח":3773,"ובד":3774,"החלו":3775,"לצאת":3776,"ht":3777,"נועה":3778,"שבוע":3779,"אזור":3780,"רגע":3781,"שיפו":3782,"אוטו":3783,"טרים":3784,"לעבור":3785,"נסות":3786,"כירות":3787,"com":3788,"עוצ":3789,"ארגון":3790,"ההר":3791,"חייבים":3792,"גורם":3793,"מזון":3794,"פיל":3795,"פיות":3796,"פתרונות":3797,"מלאה":3798,"שאתה":3799,"חיה":3800,"מאשר":3801,"ָם":3802,"זכות":3803,"מניה":3804,"אֱ":3805,"הרפו":3806,"דומים":3807,"ст":3808,"משחקים":3809,"קרקע":3810,"רוג":3811,"מידה":3812,"33":3813,"לאתר":3814,"קדם":3815,"רשות":3816,"בריאות":3817,"29":3818,"רצו":3819,"ועדה":3820,"48":3821,"ברג":3822,"ואפילו":3823,"ועדת":3824,"בשוק":3825,"דא":3826,"שניתן":3827,"היתר":3828,"למנוע":3829,"האינטרנט":3830,"מכות":3831,"הגנה":3832,"ראשי":3833,"קצר":3834,"דמה":3835,"המון":3836,"נוח":3837,"אודות":3838,"קומות":3839,"קרן":3840,"החר":3841,"אנג":3842,"שְׂ":3843,"טא":3844,"המג":3845,"דג":3846,"חזק":3847,"מינה":3848,"והן":3849,"35":3850,"45":3851,"לדברי":3852,"כלית":3853,"כאילו":3854,"מטו":3855,"לֵ":3856,"נהי":3857,"03":3858,"co":3859,"ּוֹ":3860,"גישות":3861,"ותרת":3862,"כעת":3863,"ובו":3864,"הבחי":3865,"לשו":3866,"הגבו":3867,"08":3868,"ER":3869,"התנה":3870,"שאם":3871,"הנוכ":3872,"ay":3873,"פלא":3874,"מבין":3875,"פלסטי":3876,"קבע":3877,"הימים":3878,"מקי":3879,"עלת":3880,"הרוח":3881,"ak":3882,"וזאת":3883,"ניח":3884,"הודי":3885,"היהודים":3886,"לֶךְ":3887,"עשרות":3888,"בוץ":3889,"האירוע":3890,"פקת":3891,"שיבה":3892,"פין":3893,"צילום":3894,"65":3895,"שִ":3896,"לצר":3897,"חשבו":3898,"כרים":3899,"ריך":3900,"בסרט":3901,"שיח":3902,"למידים":3903,"כתוצאה":3904,"פשים":3905,"בער":3906,"ואל":3907,"לין":3908,"כיוון":3909,"מעשה":3910,"הסת":3911,"הלאו":3912,"חזר":3913,"סקה":3914,"לישראל":3915,"דינות":3916,"בלות":3917,"האלו":3918,"לחם":3919,"פאר":3920,"הינה":3921,"היטב":3922,"האמי":3923,"בָ":3924,"גבר":3925,"תובעים":3926,"ורס":3927,"99":3928,"st":3929,"גובה":3930,"להשי":3931,"ברמה":3932,"סופר":3933,"כולה":3934,"הקשר":3935,"הבאה":3936,"תום":3937,"שבון":3938,"הוצאות":3939,"ны":3940,"נקי":3941,"יתר":3942,"לעזור":3943,"מורת":3944,"בחיפה":3945,"קצ":3946,"המצב":3947,"לעבודה":3948,"עבד":3949,"׳³":3950,"שאול":3951,"אליה":3952,"עצמם":3953,"ation":3954,"צְ":3955,"משנה":3956,"בצפון":3957,"אפרי":3958,"השונים":3959,"האחרונה":3960,"אורי":3961,"וַ":3962,"נִי":3963,"שער":3964,"עוז":3965,"הבעיה":3966,"העובדה":3967,"בֶּן":3968,"שחר":3969,"נוספות":3970,"שיע":3971,"חוש":3972,"העסק":3973,"כאב":3974,"מאיר":3975,"יט":3976,"כשיר":3977,"מאל":3978,"פרטים":3979,"מרכזי":3980,"בהצ":3981,"כותב":3982,"יצא":3983,"מודד":3984,"אירוח":3985,"זות":3986,"אהבה":3987,"אנר":3988,"סדר":3989,"השנייה":3990,"לחוק":3991,"השרון":3992,"יוצא":3993,"בשר":3994,"קְ":3995,"תאו":3996,"חנות":3997,"קנה":3998,"משמעותי":3999,"לוויזיה":4000,"דיות":4001,"המשטרה":4002,"במצב":4003,"גלו":4004,"גורי":4005,"כזו":4006,"המבקש":4007,"טרם":4008,"בשלב":4009,"אומרים":4010,"חוזי":4011,"שְׁ":4012,"ליו":4013,"ממשל":4014,"להוסיף":4015,"לתי":4016,"רואים":4017,"ww":4018,"במת":4019,"ההש":4020,"מקצועית":4021,"במצ":4022,"קרב":4023,"הברית":4024,"העם":4025,"ביע":4026,"מבלי":4027,"ul":4028,"הקרו":4029,"אלית":4030,"אריך":4031,"בַּ":4032,"ct":4033,"ow":4034,"מכם":4035,"נזק":4036,"לדוג":4037,"יחסית":4038,"תס":4039,"שירי":4040,"אוויר":4041,"פרסום":4042,"המשתמש":4043,"פלים":4044,"לשנות":4045,"הצר":4046,"ילד":4047,"תקשורת":4048,"משפחות":4049,"גנים":4050,"שטח":4051,"ליטו":4052,"לימוד":4053,"לחזור":4054,"דעתי":4055,"שקלים":4056,"תחקיר":4057,"בהמשך":4058,"דנטים":4059,"כִּי":4060,"תשלום":4061,"מבית":4062,"ליק":4063,"טיקה":4064,"הפרי":4065,"בארה":4066,"ומק":4067,"תנאי":4068,"מועד":4069,"הנד":4070,"אשם":4071,"סיבה":4072,"קטנה":4073,"ומפ":4074,"ליחה":4075,"חוסר":4076,"לבדוק":4077,"בשבוע":4078,"תרגום":4079,"האחרונים":4080,"תוכנית":4081,"האנשים":4082,"הרבי":4083,"מבט":4084,"רויות":4085,"קופת":4086,"ישנם":4087,"לפנות":4088,"31":4089,"הפולי":4090,"לחלוטין":4091,"רוז":4092,"חומר":4093,"ונית":4094,"שיהיה":4095,"מישהו":4096,"....":4097,"אומרת":4098,"סח":4099,"שימת":4100,"נדל":4101,"oo":4102,"ов":4103,"אווי":4104,"שווה":4105,"בנגב":4106,"כמים":4107,"באותה":4108,"כניות":4109,"גילה":4110,"עסקי":4111,"לחת":4112,"הגור":4113,"אמרו":4114,"לציון":4115,"יא":4116,"היות":4117,"בעלת":4118,"אוי":4119,"מגו":4120,"דיי":4121,"תיד":4122,"העור":4123,"2010":4124,"ולש":4125,"ביים":4126,"מתאים":4127,"בתחו":4128,"ייעוץ":4129,"נקודות":4130,"ועם":4131,"צפוי":4132,"משק":4133,"פוט":4134,"הסכם":4135,"זיכ":4136,"בכדי":4137,"קיה":4138,"עתה":4139,"בעות":4140,"מקצוע":4141,"ללכת":4142,"באינטרנט":4143,"לרו":4144,"מלון":4145,"סקו":4146,"פנה":4147,"מדר":4148,"סביב":4149,"אוב":4150,"ענת":4151,"פורסם":4152,"תאורה":4153,"בטוח":4154,"המחיר":4155,"מוצר":4156,"תחבורה":4157,"ָּ":4158,"הגדולה":4159,"זכה":4160,"מלה":4161,"תצ":4162,"פירות":4163,"המערכת":4164,"מבחינת":4165,"בָּ":4166,"לרוב":4167,"לכתוב":4168,"ברמת":4169,"ממלי":4170,"ידו":4171,"מאה":4172,"שבהם":4173,"הלכה":4174,"עדים":4175,"מעצ":4176,"נעשה":4177,"בבני":4178,"לאחרונה":4179,"מכך":4180,"שימו":4181,"198":4182,"לימודי":4183,"להתי":4184,"נסים":4185,"אשדוד":4186,"הביטחון":4187,"וַיִּ":4188,"ִם":4189,"חירים":4190,"2013":4191,"בדיקת":4192,"טן":4193,"עילה":4194,"הפך":4195,"ab":4196,"פְ":4197,"ולאחר":4198,"כוחות":4199,"מלחמת":4200,"משתמשים":4201,"נורות":4202,"דיין":4203,"חינם":4204,"חדרי":4205,"טכנולוגי":4206,"זרו":4207,"טרף":4208,"הפעם":4209,"לפעמים":4210,"רעי":4211,"קיון":4212,"השר":4213,"עצה":4214,"ליים":4215,"חינוך":4216,"השאלה":4217,"פורט":4218,"בספר":4219,"נפש":4220,"ָל":4221,"סס":4222,"בעלות":4223,"בזכות":4224,"בדר":4225,"להפוך":4226,"עצות":4227,"מכיוון":4228,"להעביר":4229,"מנט":4230,"נגר":4231,"עימה":4232,"פונים":4233,"שלישי":4234,"מחוץ":4235,"ter":4236,"כנון":4237,"פח":4238,"בימים":4239,"טובת":4240,"In":4241,"בילים":4242,"שיעור":4243,"בתח":4244,"זכו":4245,"הבאים":4246,"רָאֵל":4247,"כמי":4248,"לשלם":4249,"נועם":4250,"לרבות":4251,"עלינו":4252,"פעיל":4253,"ובין":4254,"ניסה":4255,"סיר":4256,"לכרטיס":4257,"לומים":4258,"שויות":4259,"השם":4260,"מוסדות":4261,"ор":4262,"ניתוח":4263,"ביחס":4264,"מורות":4265,"מדינה":4266,"כנסת":4267,"מכרזי":4268,"הזדמנות":4269,"רוּ":4270,"דיני":4271,"בנת":4272,"קורה":4273,"הכנסו":4274,"היהודית":4275,"שאלות":4276,"סא":4277,"פד":4278,"מערב":4279,"תשו":4280,"אלון":4281,"ארוך":4282,"לספק":4283,"לוונ":4284,"שצריך":4285,"תכנית":4286,"ביניהם":4287,"חוות":4288,"שאפשר":4289,"הבדל":4290,"בעצם":4291,"מהווה":4292,"תפו":4293,"פיר":4294,"צועים":4295,"הלקוח":4296,"ניברסיטת":4297,"ערים":4298,"קלים":4299,"תלו":4300,"נהג":4301,"האנו":4302,"הפני":4303,"2014":4304,"מטבח":4305,"כלוסי":4306,"מיוחדת":4307,"המאה":4308,"שעבר":4309,"ֹר":4310,"מזר":4311,"הקבוצה":4312,"לאנשים":4313,"הזמנה":4314,"חולים":4315,"להסת":4316,"כוכב":4317,"זוגות":4318,"הפנים":4319,"הקמת":4320,"טעם":4321,"2015":4322,"איתנו":4323,"הנושא":4324,"לכא":4325,"ניהו":4326,"ניקוי":4327,"אתרי":4328,"סיק":4329,"ויו":4330,"והצ":4331,"המז":4332,"להש":4333,"ברגע":4334,"אינן":4335,"לצות":4336,"קרוב":4337,"95":4338,"בפועל":4339,"לטיפול":4340,"ערה":4341,"שיכול":4342,"לבנות":4343,"הנשיא":4344,"בניגוד":4345,"כניסה":4346,"36":4347,"אמצ":4348,"אימה":4349,"השתת":4350,"בחור":4351,"לגמרי":4352,"מקומות":4353,"75":4354,"נמוך":4355,"שיון":4356,"סיים":4357,"לקנות":4358,"לגרום":4359,"לעיתים":4360,"06":4361,"בלת":4362,"וחצי":4363,"ההורים":4364,"ממי":4365,"סטית":4366,"צפייה":4367,"שליטה":4368,"יצר":4369,"בתים":4370,"תקופה":4371,"פורום":4372,"ביטוי":4373,"בחיים":4374,"ואר":4375,"כֶם":4376,"החולים":4377,"מטעם":4378,"שמונה":4379,"av":4380,"אגר":4381,"שס":4382,"אישור":4383,"עופה":4384,"צומת":4385,"גרמניה":4386,"הבריאות":4387,"גנ":4388,"תמיכה":4389,"מיוח":4390,"um":4391,"נמו":4392,"הקול":4393,"עצם":4394,"ככה":4395,"כָּ":4396,"מתחת":4397,"ועי":4398,"נתונים":4399,"צרת":4400,"תחום":4401,"חופ":4402,"סוס":4403,"לראשונה":4404,"שמא":4405,"איתי":4406,"אימון":4407,"לוֹ":4408,"פרת":4409,"לעיל":4410,"לביטוח":4411,"שבות":4412,"בחלק":4413,"מחירי":4414,"סתם":4415,"אסור":4416,"פקו":4417,"בימי":4418,"להפ":4419,"אוהב":4420,"מחשב":4421,"קדי":4422,"טרות":4423,"מנכ":4424,"אמנות":4425,"תקווה":4426,"בגיל":4427,"גלה":4428,"משר":4429,"ולהת":4430,"משא":4431,"מחקר":4432,"פעולות":4433,"הגיעו":4434,"סקת":4435,"קח":4436,"תלוי":4437,"ביד":4438,"הקרי":4439,"לרי":4440,"שמות":4441,"מוני":4442,"אפשרו":4443,"השקעות":4444,"שעו":4445,"דיון":4446,"מאס":4447,"לרכוש":4448,"ידוע":4449,"נך":4450,"אוּ":4451,"שופט":4452,"כאל":4453,"טרת":4454,"גורמים":4455,"הנוער":4456,"מוצע":4457,"טען":4458,"קלא":4459,"רגל":4460,"שכבר":4461,"כלכלי":4462,"פרשת":4463,"מעניין":4464,"עבודת":4465,"ובכל":4466,"קונים":4467,"מרות":4468,"מעות":4469,"בשעה":4470,"המרכזי":4471,"לבו":4472,"נרת":4473,"לחשוב":4474,"שאנו":4475,"דְ":4476,"למים":4477,"המות":4478,"אלים":4479,"רקע":4480,"בסופו":4481,"יַ":4482,"פעות":4483,"חוזר":4484,"שתה":4485,"בירות":4486,"ברר":4487,"סיס":4488,"סוד":4489,"פריט":4490,"64":4491,"שאינם":4492,"אינט":4493,"ובלים":4494,"בחדר":4495,"04":4496,"בדבר":4497,"פתו":4498,"ביב":4499,"דיסקר":4500,"התקשורת":4501,"ен":4502,"וקי":4503,"קלה":4504,">>":4505,"הטר":4506,"הֲ":4507,"הגו":4508,"ענה":4509,"תפקי":4510,"ורג":4511,"האמת":4512,"הסיפור":4513,"2008":4514,"יך":4515,"שחי":4516,"מידי":4517,"יוני":4518,"מגיעים":4519,"ומצ":4520,"ומד":4521,"נאל":4522,"חזרה":4523,"לציין":4524,"פקים":4525,"שוט":4526,"הפלסטי":4527,"פסת":4528,"בחודש":4529,"ענות":4530,"נתניהו":4531,"לעבודות":4532,"עדת":4533,"רקות":4534,"הראשונים":4535,"TE":4536,"שחור":4537,"ליום":4538,"נוחה":4539,"כיח":4540,"סוך":4541,"הצורך":4542,"//":4543,"עק":4544,"ציב":4545,"גיעו":4546,"ספט":4547,"נדון":4548,"געים":4549,"ננסי":4550,"ורר":4551,"חרר":4552,"קוריס":4553,"מהיר":4554,"נעים":4555,"יִשְׂ":4556,"אבק":4557,"נוף":4558,"בשבי":4559,"טובר":4560,"בחברה":4561,"שבועות":4562,"הביתה":4563,"חנה":4564,"כיון":4565,"פרץ":4566,"בלעדי":4567,"וַיּ":4568,"המקצועי":4569,"שֶׁה":4570,"אספ":4571,"בַ":4572,"חובה":4573,"קטובר":4574,"אלות":4575,"המוצרים":4576,"הזכ":4577,"הורים":4578,"צפו":4579,"קרות":4580,"מקבלים":4581,"מפרי":4582,"קטנות":4583,"להמ":4584,"מניות":4585,"נותן":4586,"להיכנס":4587,"נשיא":4588,"מֹשֶׁה":4589,"בשו":4590,"סביר":4591,"צרות":4592,"שקר":4593,"במקרים":4594,"סביבה":4595,"de":4596,"מפת":4597,"עמוד":4598,"אילת":4599,"הולך":4600,"32":4601,"LE":4602,"ליווי":4603,"אתמול":4604,"פניים":4605,"נמצאים":4606,"ка":4607,"במערכת":4608,"לגלות":4609,"מבקשים":4610,"פנית":4611,"רפ":4612,"ורית":4613,"עיים":4614,"טיולים":4615,"קירה":4616,"ארבע":4617,"הנסי":4618,"יכולת":4619,"כלום":4620,"יחסי":4621,"לארץ":4622,"מיוחדים":4623,"עלו":4624,"עיי":4625,"מעולה":4626,"התרבות":4627,"שובות":4628,"39":4629,"500":4630,"],":4631,"אגו":4632,"יורק":4633,"ביחד":4634,"זונה":4635,"בניית":4636,"נשאר":4637,"זקו":4638,"עשרה":4639,"פלה":4640,"תואר":4641,"השבת":4642,"פתור":4643,"לקבלת":4644,"בתחילת":4645,"פורס":4646,"עצת":4647,"גברים":4648,"זן":4649,"חיצוני":4650,"החלק":4651,"מלך":4652,"קבלו":4653,"34":4654,"נדה":4655,"רַ":4656,"במבר":4657,"!!!":4658,"37":4659,"המטו":4660,"איות":4661,"דיק":4662,"פרחים":4663,"זוהי":4664,"היסטורי":4665,"אפי":4666,"מיר":4667,"עבוד":4668,"קנות":4669,"תשובה":4670,"וראה":4671,"רוט":4672,"ספטמבר":4673,"ia":4674,"נטו":4675,"עציון":4676,"שמים":4677,"תמונה":4678,"מבנה":4679,"ֹן":4680,"הדם":4681,"ראשו":4682,"כיל":4683,"תקופת":4684,"בכפר":4685,"אינס":4686,"שיב":4687,"תונה":4688,"התלמידים":4689,"לקט":4690,"מקסי":4691,"אוהבים":4692,"IN":4693,"גשים":4694,"התביעה":4695,"וריד":4696,"טחים":4697,"תָּה":4698,"ניקה":4699,"הוט":4700,"בלב":4701,"עצים":4702,"מיניום":4703,"מאחורי":4704,"02":4705,"??":4706,"באל":4707,"סרי":4708,"פגש":4709,"שיבות":4710,"מעולם":4711,"לעד":4712,"הפעילות":4713,"67":4714,"].":4715,"בדה":4716,"מנסה":4717,"שלמת":4718,"תוכן":4719,"גוסט":4720,"ואולי":4721,"דעתו":4722,"מדבר":4723,"הַמ":4724,"מיליארד":4725,"יִשְׂרָאֵל":4726,"אבא":4727,"צעיר":4728,"קיימות":4729,"אצלנו":4730,"היחיד":4731,"חשיבות":4732,"זכר":4733,"נַ":4734,"חיילים":4735,"2009":4736,"אסטר":4737,"44":4738,"af":4739,"אמן":4740,"פילה":4741,"он":4742,"וול":4743,"ענו":4744,"ענק":4745,"עלם":4746,"סטרו":4747,"זיו":4748,"סן":4749,"שינויים":4750,"ְּ":4751,"בִי":4752,"ואו":4753,"עֵ":4754,"צרו":4755,"רונית":4756,"מענה":4757,"שנתיים":4758,"בבחי":4759,"הצו":4760,"שמר":4761,"גישים":4762,"העמק":4763,"שִׁ":4764,"ומא":4765,"נכונה":4766,"פיו":4767,"מסך":4768,"ואילו":4769,"כניס":4770,"ניברסיטה":4771,"td":4772,"ет":4773,"חפ":4774,"ורא":4775,"טיב":4776,"המוצ":4777,"up":4778,"אקו":4779,"תות":4780,"בנוגע":4781,"ודי":4782,"סני":4783,"ביש":4784,"רוד":4785,"מתקד":4786,"משמעותית":4787,"הבוקר":4788,"לאירועים":4789,"מאחר":4790,"פגיעה":4791,"העול":4792,"מדת":4793,"מציע":4794,"ap":4795,"ֶלֶךְ":4796,"בבר":4797,"בהו":4798,"חלה":4799,"כמת":4800,"צמבר":4801,"במחיר":4802,"מנהי":4803,"שלפני":4804,"המחוזי":4805,"ריי":4806,"עיות":4807,"מתכו":4808,"זהב":4809,"ers":4810,"הטבע":4811,"מקווה":4812,"מאפשרת":4813,"if":4814,"ההפ":4815,"פנו":4816,"באש":4817,"בשטח":4818,"מקד":4819,"הסיבה":4820,"קבוע":4821,"להכיר":4822,"מרד":4823,"להתמודד":4824,"גבע":4825,"חשו":4826,"לוקת":4827,"בורים":4828,"מסוים":4829,"עשוי":4830,"ראיתי":4831,"שרון":4832,"בום":4833,"עילית":4834,"טיפ":4835,"מצפה":4836,"ברוך":4837,"צדק":4838,"מדהים":4839,"ננו":4840,"מחפשים":4841,"כנן":4842,"קורס":4843,"הלימודים":4844,"קמה":4845,"הַמּ":4846,"להוציא":4847,"להשיג":4848,"01":4849,"Ltd":4850,"נטר":4851,"מינ":4852,"ובלי":4853,"נסיבות":4854,"מכבי":4855,"חדרים":4856,"אֱלֹ":4857,"ар":4858,"וכמובן":4859,"מבל":4860,"תוק":4861,"במהירות":4862,"לשימוש":4863,"הוראות":4864,"שולחן":4865,"דלק":4866,"כחות":4867,"איפה":4868,"ישנה":4869,"תון":4870,"ניקיון":4871,"מחשבים":4872,"אריה":4873,"היחידה":4874,"האופ":4875,"לנד":4876,"לטובת":4877,"ויותר":4878,"בקלות":4879,"כנסו":4880,"העיקרי":4881,"הדירה":4882,"השלישי":4883,"ֹד":4884,"חסר":4885,"נוער":4886,"לאכול":4887,"קטים":4888,"קטור":4889,"ולוגית":4890,"מצווה":4891,"וידאו":4892,"ולל":4893,"העניין":4894,"לגה":4895,"יין":4896,"כבות":4897,"רוו":4898,"מפור":4899,"גרפי":4900,"בולות":4901,"68":4902,"נפת":4903,"עשר":4904,"שמדובר":4905,"בשבת":4906,"איתן":4907,"רוניקה":4908,"מבחינה":4909,"://":4910,"המלון":4911,"שיטים":4912,"בואו":4913,"הערב":4914,"יכולות":4915,"למידה":4916,"אדי":4917,"הגל":4918,"ולחן":4919,"מייצ":4920,"עיניים":4921,"חוף":4922,"מחנה":4923,"לשמוע":4924,"בסדר":4925,"הביט":4926,"the":4927,"בֵּ":4928,"חנן":4929,"מוסי":4930,"מתחיל":4931,"הרעיון":4932,"ערבים":4933,"שליט":4934,"לספר":4935,"זכור":4936,"קבוצות":4937,"tm":4938,"לשים":4939,"נָה":4940,"ריון":4941,"חילים":4942,"סימן":4943,"שהן":4944,"בתור":4945,"למדי":4946,"אפשרי":4947,"תהלי":4948,"קבלן":4949,"tp":4950,"מבצ":4951,"נאה":4952,"אישה":4953,"הרג":4954,"ישוב":4955,"מחירים":4956,"לשעבר":4957,"להתחיל":4958,"עבורה":4959,"בטיח":4960,"נחו":4961,"מרץ":4962,"הרשות":4963,"כתה":4964,"אליהם":4965,"נגלית":4966,"סקס":4967,"ки":4968,"ושו":4969,"קע":4970,"רייה":4971,"מוח":4972,"הגול":4973,"(\"":4974,"עצו":4975,"רוף":4976,"בתקופה":4977,"הפכה":4978,"בחון":4979,"בצד":4980,"הטכנ":4981,"אמיתי":4982,"ат":4983,"עובר":4984,"תף":4985,"מעמד":4986,"זוק":4987,"ברואר":4988,"זיכרון":4989,"יךָ":4990,"פעת":4991,"הילד":4992,"מהן":4993,"אמור":4994,"אמין":4995,"לרשות":4996,"אמרה":4997,"החלטות":4998,"נושאים":4999,"חני":5000,"איתו":5001,"גילים":5002,"הוועדה":5003,"למנויים":5004,"?\"":5005,"אדרי":5006,"דעה":5007,"לימודים":5008,"נהר":5009,"כוללת":5010,"בבוקר":5011,"הגדולים":5012,"נויות":5013,"טיפים":5014,"פרטיים":5015,"הלקוחות":5016,"שניים":5017,"טענה":5018,"דלתות":5019,"לשלוח":5020,"מירה":5021,"זוף":5022,"חברתית":5023,"בדיקות":5024,"דניאל":5025,"sh":5026,"הלא":5027,"לָה":5028,"מושלם":5029,"התא":5030,"נסקי":5031,"lo":5032,"ֵר":5033,"כוז":5034,"בורג":5035,"לפעול":5036,"גוריה":5037,"לכאורה":5038,"פטר":5039,"ראשונה":5040,"המלך":5041,"בדיקה":5042,"2007":5043,"ראוי":5044,"כרות":5045,"לתוך":5046,"חייו":5047,"הבנק":5048,"לשון":5049,"מוצא":5050,"יולי":5051,"מפר":5052,"קשת":5053,"רמות":5054,"ובת":5055,"שרק":5056,"תוֹ":5057,"יוכל":5058,"אנטי":5059,"מדינות":5060,"יהודית":5061,"עברו":5062,"שד":5063,"המציאות":5064,"אטרקציות":5065,"אבט":5066,"בלא":5067,"תפים":5068,"המלצות":5069,"כתבו":5070,"בשנות":5071,"חייבת":5072,"ess":5073,"ישר":5074,"לכה":5075,"נקים":5076,"נינו":5077,"שינה":5078,"פוץ":5079,"בחשבון":5080,"לטות":5081,"הבינ":5082,"הלילה":5083,"קבוצה":5084,"ew":5085,"נִ":5086,"שקו":5087,"תְ":5088,"ארג":5089,"החברות":5090,"קורא":5091,"הארגון":5092,"תכנון":5093,"אקד":5094,"נולד":5095,"סכום":5096,"אילן":5097,"שירה":5098,"לאפשר":5099,"ישׁ":5100,"טווח":5101,"בסך":5102,"מילים":5103,"טוען":5104,"איתם":5105,"הקוד":5106,"העונה":5107,"המט":5108,"העברית":5109,"לחיות":5110,"סרטן":5111,"ווא":5112,"מכתב":5113,"ממוק":5114,"מתקני":5115,"הרע":5116,"הפסי":5117,"המוס":5118,"כשהוא":5119,"חלקה":5120,"חלקי":5121,"קטיבי":5122,"רֶץ":5123,"חלב":5124,"השאר":5125,"http":5126,"זורים":5127,"חגי":5128,"נב":5129,"להד":5130,"משחקי":5131,"מצאים":5132,"במשרד":5133,"הסביבה":5134,"ואמר":5135,"מותה":5136,"עבורכם":5137,"מצוות":5138,"צעירים":5139,"qu":5140,"מעין":5141,"Sh":5142,"ин":5143,"אחוז":5144,"הטובה":5145,"פאים":5146,"ביעת":5147,"חיפוש":5148,"מתאר":5149,"כונת":5150,"כרמי":5151,"קטיבית":5152,"העובדים":5153,"')":5154,"AN":5155,"יור":5156,"נחת":5157,"עקי":5158,"כושר":5159,"חייל":5160,"הטובים":5161,"מבצע":5162,"בוצות":5163,"סין":5164,"צירת":5165,"יודעת":5166,"השחק":5167,"אחראי":5168,"ֵן":5169,"גדי":5170,"געת":5171,"לנסות":5172,"קהי":5173,"ביטחון":5174,"קווי":5175,"ph":5176,"שיתוף":5177,"חוקי":5178,"שוי":5179,"פסטי":5180,"צחון":5181,"תנועה":5182,"גזר":5183,"לאים":5184,"פרסו":5185,"מרק":5186,"יוֹ":5187,"לבחי":5188,"מפתי":5189,"מבנים":5190,"גוריון":5191,"IP":5192,"th":5193,"המצי":5194,"ובעיקר":5195,"להשכ":5196,"האה":5197,"נגדות":5198,"האוויר":5199,"שֶׁ":5200,"גליים":5201,"כְ":5202,"סדרת":5203,"המשרד":5204,"מומחה":5205,"שהרי":5206,"בחרו":5207,"ליהנות":5208,"ברשות":5209,"עלול":5210,"תושבי":5211,"פתאום":5212,"דעים":5213,"הצעת":5214,"ללקוחות":5215,"од":5216,"בבתי":5217,"חמש":5218,"דַ":5219,"חרים":5220,"תאי":5221,"איד":5222,"צרפת":5223,"תלמידים":5224,"ההון":5225,"מותר":5226,"נאמר":5227,"חוויה":5228,"גדולות":5229,"גנון":5230,"כחלק":5231,"היצי":5232,"מוכר":5233,"ארבעה":5234,"מאור":5235,"המערער":5236,"תפקיד":5237,"המלחמה":5238,"התע":5239,"לשחק":5240,"סרטים":5241,"פלדה":5242,"אטרון":5243,"ck":5244,"בחיי":5245,"בבאר":5246,"ההג":5247,"רשם":5248,"המיי":5249,"המקור":5250,"מיקרו":5251,"האב":5252,"טובות":5253,"המועד":5254,"נזי":5255,"ערת":5256,"קיעים":5257,"מצליח":5258,"בחרת":5259,"אלינו":5260,"רצון":5261,"עשייה":5262,"ביקורת":5263,"אֱלֹה":5264,"jtm":5265,"שקט":5266,"ולר":5267,"ליטה":5268,"מהפ":5269,"מטרים":5270,"יחסים":5271,"מרדכי":5272,"השכרת":5273,"כוס":5274,"ילדי":5275,"מציה":5276,"הגיעה":5277,"ערוץ":5278,"אפשרויות":5279,"\")":5280,"47":5281,"הצוות":5282,"ריצוף":5283,"להן":5284,"צינורות":5285,"כרמל":5286,"מאוחר":5287,"גבוהים":5288,"השקעה":5289,"CO":5290,"בוב":5291,"שילוב":5292,"מיקה":5293,"מיידי":5294,"ובכך":5295,"לוט":5296,"חושבים":5297,"פוסט":5298,"כאלו":5299,"ine":5300,"כָּל":5301,"42":5302,"בכתב":5303,"מוקד":5304,"מוחלט":5305,"סיפר":5306,"se":5307,"חון":5308,"קשורת":5309,"שמס":5310,"תָּ":5311,"להניח":5312,"שתות":5313,"בקרוב":5314,"הגז":5315,"חברתי":5316,"אנרגיה":5317,"ah":5318,"הכולל":5319,"ועו":5320,"קשים":5321,"שתיות":5322,"כתובת":5323,"כשל":5324,"להור":5325,"העלי":5326,"לחפש":5327,"מותו":5328,"בסעיף":5329,"197":5330,"וַיְ":5331,",‬":5332,"ip":5333,"כשר":5334,"מגדל":5335,"רוע":5336,"הית":5337,"ובש":5338,"ובני":5339,"חיק":5340,"מסמכים":5341,"נקבע":5342,"מבקש":5343,"פורי":5344,"צרה":5345,"הנתונים":5346,"משפטי":5347,"נשמע":5348,"יצירת":5349,"במקביל":5350,"**":5351,"אתו":5352,"פשוטה":5353,"ראשית":5354,"אֹ":5355,"אמא":5356,"כרה":5357,"לחברה":5358,"בניות":5359,"מכירים":5360,"הכנסה":5361,"קרקעין":5362,"69":5363,"הלך":5364,"לפתוח":5365,"מדיניות":5366,"תחרות":5367,"קולד":5368,"ישירות":5369,"צץ":5370,"הירו":5371,"מיכאל":5372,"בהס":5373,"לחות":5374,"זיאון":5375,"כנע":5376,"Be":5377,"פולה":5378,"ולפי":5379,"דיל":5380,"קוט":5381,"בהרצ":5382,"באשר":5383,"הנשים":5384,"גרש":5385,"פעילויות":5386,"הפרויקט":5387,"ле":5388,"הַי":5389,"נלי":5390,"ביק":5391,"שישי":5392,"מוט":5393,"פיעה":5394,"טיק":5395,"מרא":5396,"גינה":5397,"לאומית":5398,"AR":5399,"נחה":5400,"תוכל":5401,"בהר":5402,"במדינה":5403,"המועצה":5404,"שלומים":5405,"להציג":5406,"ושוב":5407,"טליה":5408,"לני":5409,"המור":5410,"האש":5411,"מכשיר":5412,"התוכנית":5413,"איכותי":5414,"ֹב":5415,"פטי":5416,"דיגי":5417,"בקט":5418,"בלילה":5419,"ארוכה":5420,"סיפורים":5421,"):":5422,"מנג":5423,"נתיים":5424,"תביעה":5425,"לאדם":5426,"יוכלו":5427,"האפשרות":5428,"פרופ":5429,"צבעו":5430,"כרטיסים":5431,"ובלת":5432,"קראו":5433,"לחלק":5434,"בנימין":5435,"השונות":5436,"לצפות":5437,"המיוחד":5438,"ан":5439,"בך":5440,"במספר":5441,"דָ":5442,"והיה":5443,"ששי":5444,"משקל":5445,"הרח":5446,"ומים":5447,"זול":5448,"קון":5449,"ויח":5450,"הפור":5451,"אשראי":5452,"ice":5453,"סבל":5454,"קדו":5455,"ותה":5456,"ריכה":5457,"מונת":5458,"פוק":5459,"לקבוע":5460,"זוהר":5461,"הקרוב":5462,"שותף":5463,"משיך":5464,"תערו":5465,"ההחלטה":5466,"פגע":5467,"שבין":5468,"להגיד":5469,"הון":5470,"מתנה":5471,"ויים":5472,"החור":5473,"ביטול":5474,"מטית":5475,"צעו":5476,"המל":5477,"ליחו":5478,"סיום":5479,"השמש":5480,"מאמרים":5481,"----------------":5482,"המקומית":5483,"באה":5484,"לִי":5485,"לשלב":5486,"המאפשר":5487,"להכין":5488,"כלות":5489,"בעבודה":5490,"לשפר":5491,"ספרו":5492,"לרכב":5493,"אדמה":5494,"הזכויות":5495,"טס":5496,"באור":5497,"Av":5498,"HD":5499,"וגי":5500,"חרות":5501,"ננים":5502,"נחשב":5503,"סבא":5504,"עג":5505,"פתוח":5506,"חוס":5507,"מוסד":5508,"מוזמנים":5509,"החשמל":5510,"כרו":5511,"מִי":5512,"ענים":5513,"קא":5514,"מתר":5515,"מסחרי":5516,"במטרה":5517,"באים":5518,"עודד":5519,"אדום":5520,"סלי":5521,"ולח":5522,"כיב":5523,"דואר":5524,"העד":5525,"בקשר":5526,"הכסף":5527,"הדרו":5528,"מציעה":5529,"לסייע":5530,"הרפואי":5531,"Re":5532,"אבות":5533,"רן":5534,"אימים":5535,"קיום":5536,"בעד":5537,"עליכם":5538,"איננו":5539,"דורות":5540,"האישי":5541,"הוצאה":5542,"טכנולוגיה":5543,"התנהגות":5544,"IT":5545,"האירו":5546,"זְ":5547,"ייתכן":5548,"מילה":5549,"עיתו":5550,"התרו":5551,"הופך":5552,"נמצאת":5553,"קדימה":5554,"ik":5555,"ub":5556,"גדר":5557,"דרום":5558,"והמו":5559,"קאות":5560,"כיבים":5561,"בתהליך":5562,"השפעה":5563,"הפעולה":5564,"אליהו":5565,"דוגמת":5566,"בגוף":5567,"ינים":5568,"מלים":5569,"המלו":5570,"המזון":5571,"דיקה":5572,"ברכה":5573,"הווה":5574,"כלשהו":5575,"הסדר":5576,"מדיה":5577,"הזוג":5578,"ne":5579,"איון":5580,"סיכוי":5581,"חשמלי":5582,"זרע":5583,"est":5584,"טקסט":5585,"57":5586,"הדעת":5587,"עזה":5588,"המתח":5589,"מסע":5590,"יוסי":5591,"כוונה":5592,"מדברים":5593,"פסות":5594,"אורך":5595,"רשתות":5596,"od":5597,"נף":5598,"ערות":5599,"חייה":5600,"פיעים":5601,"הגליל":5602,"בנייה":5603,"המחקר":5604,"ov":5605,"לשל":5606,"נער":5607,"היכולת":5608,"מימון":5609,"לשתי":5610,"שלושת":5611,"שמעו":5612,"השוק":5613,"הקודם":5614,"49":5615,"בפעם":5616,"סְ":5617,"המאו":5618,"וברי":5619,"והול":5620,"הנכון":5621,"מורי":5622,"ולב":5623,"שמאל":5624,"הדמו":5625,"הכלכלי":5626,"המילה":5627,"מכרז":5628,"יסוד":5629,"באחד":5630,"זכי":5631,"פלת":5632,"שייה":5633,"התנועה":5634,"מחלות":5635,"כרם":5636,"חשבתי":5637,"אמב":5638,"הקהל":5639,"קלון":5640,"תקי":5641,"שיחה":5642,"ובב":5643,"משמש":5644,"הקהילה":5645,"שאף":5646,"סטרי":5647,"נייני":5648,"האוכל":5649,"האמריק":5650,"בֶ":5651,"המלא":5652,"המחשב":5653,"ויט":5654,"אליים":5655,"בעיני":5656,"מודדות":5657,"ודא":5658,"טלפון":5659,"לקיים":5660,"מפרט":5661,"רס":5662,"שנית":5663,"המתק":5664,"טרא":5665,"לעז":5666,"בדרום":5667,"יהושע":5668,"2004":5669,"עדיף":5670,"באמצע":5671,"רפואה":5672,"אסטרט":5673,"הטו":5674,"כָל":5675,"מכאן":5676,"החלפת":5677,"זמים":5678,"שיטת":5679,"אונה":5680,"שהצ":5681,"מסביר":5682,"הנראה":5683,"בניו":5684,"עליך":5685,"הדור":5686,"אביו":5687,"קרונות":5688,"דריך":5689,"ההכ":5690,"שזו":5691,"המבנה":5692,"משמר":5693,"והס":5694,"טוס":5695,"בטים":5696,"משפחתו":5697,"פועלים":5698,"חובות":5699,"ish":5700,"הוצאת":5701,"הוּא":5702,"לסו":5703,"קלו":5704,"הרשם":5705,"ארצות":5706,"הפלי":5707,"בשני":5708,"הצליח":5709,"גרמו":5710,"נשטיין":5711,"התיכון":5712,"הות":5713,"מלבד":5714,"נכתב":5715,"עמוק":5716,"קולי":5717,"לינה":5718,"התפתחות":5719,"והנה":5720,"אביזרים":5721,"כרטיסי":5722,"תיירות":5723,"לכיוון":5724,"שחקנים":5725,"אולה":5726,"כבה":5727,"ננות":5728,"נקר":5729,"תד":5730,"כיף":5731,"מרגיש":5732,"הרמב":5733,"בריה":5734,"הדיון":5735,"ֶּה":5736,"מודה":5737,"אופי":5738,"עוסק":5739,"נייר":5740,"קבלה":5741,"נברג":5742,"מוזיקה":5743,"ובן":5744,"במאי":5745,"The":5746,"te":5747,"ель":5748,"בדים":5749,"גשת":5750,"וכמה":5751,"טכני":5752,"שמחה":5753,"אוגוסט":5754,"חימום":5755,"פיצוי":5756,"שוף":5757,"מתכת":5758,"הרשמת":5759,"אמנים":5760,"2006":5761,"במשחק":5762,"משיבים":5763,"פסיכולו":5764,"יָה":5765,"קפי":5766,"כירת":5767,"נתון":5768,"גדות":5769,"בורי":5770,"מורכב":5771,"מקצועיים":5772,"פתיחת":5773,"ואות":5774,"מחיי":5775,"הצעי":5776,"ייצור":5777,"פסה":5778,"האיש":5779,"גשתי":5780,"מוכן":5781,"סיבות":5782,"הנאשם":5783,"66":5784,"כוב":5785,"לחיים":5786,"מאיתנו":5787,"עדר":5788,"בויות":5789,"כולות":5790,"ַיִם":5791,"ברוב":5792,"אלומיניום":5793,"מכיר":5794,"הולדת":5795,"אַתָּה":5796,"הקיץ":5797,"להזמין":5798,"הלאומי":5799,"דּ":5800,"וללא":5801,"שיזוף":5802,"ברורה":5803,"בערב":5804,"ישן":5805,"חשש":5806,"הציונות":5807,"are":5808,"חזקה":5809,"מבלדור":5810,"דגש":5811,"יני":5812,"לבוא":5813,"שֵ":5814,"תִּי":5815,"קרר":5816,"שתת":5817,"פתחו":5818,"הנוכחי":5819,"for":5820,"שטי":5821,"אוס":5822,"מספקת":5823,"האמור":5824,"לעתים":5825,"החיפוש":5826,"הכוונה":5827,"פרויקטים":5828,"ES":5829,"ви":5830,"בב":5831,"יבוא":5832,"המכו":5833,"שאיר":5834,"ואיך":5835,"לעצמו":5836,"מפתח":5837,"איל":5838,"עיריית":5839,"התחת":5840,"לקח":5841,"לעבר":5842,"הבאות":5843,"פטור":5844,"השיר":5845,"שלהן":5846,"זכוכית":5847,"41":5848,"ההיסטוריה":5849,"לדה":5850,"רשאי":5851,"נוהג":5852,"הירי":5853,"מתכונים":5854,"בעתיד":5855,"צופים":5856,"למצב":5857,"ששו":5858,"ותרים":5859,"ניסי":5860,"המחירים":5861,"התקופה":5862,"דופן":5863,"האזר":5864,"הקור":5865,"הכניסה":5866,"מוקדם":5867,"מלחמה":5868,"אִישׁ":5869,"ירידה":5870,"שיפור":5871,"אוקטובר":5872,"ברט":5873,"לאט":5874,"קידום":5875,"חשובה":5876,"פסיק":5877,"מסוימים":5878,"האמריקאי":5879,"תשע":5880,"נוז":5881,"פיד":5882,"מערי":5883,"בתקופת":5884,"החליט":5885,"מדוי":5886,"מנחם":5887,"עורר":5888,"ard":5889,"נקודת":5890,"למשך":5891,"ושם":5892,"ייש":5893,"צבאי":5894,"שָּ":5895,"בירו":5896,"טיול":5897,"תוספת":5898,"צוץ":5899,"כרז":5900,"אשקלון":5901,"נרגיה":5902,"הטבעי":5903,"כספי":5904,"הנתבע":5905,"עברה":5906,"תַ":5907,"ולדות":5908,"מינו":5909,"בוגרים":5910,"לקה":5911,"לעניין":5912,"החדשות":5913,"עָם":5914,"רופא":5915,"ריק":5916,"זוגי":5917,"נסיה":5918,"מציג":5919,"טענות":5920,"300":5921,"בקרה":5922,"מדע":5923,"שבר":5924,"התמונה":5925,"התמונות":5926,"לטפל":5927,"קוראים":5928,"ראן":5929,"גליל":5930,"לקוח":5931,"ישיבה":5932,"בערך":5933,"פוטנצי":5934,"בנית":5935,"בכיר":5936,"לעין":5937,"ססת":5938,"כללית":5939,"התשובה":5940,"מדד":5941,"לפגוע":5942,"מנויות":5943,"עומדת":5944,"ישיר":5945,"נּ":5946,"טיל":5947,"Tel":5948,"מעלות":5949,"פצ":5950,"ציי":5951,"האזור":5952,"מחר":5953,"לשבת":5954,"מושג":5955,"op":5956,"עני":5957,"צול":5958,"קשור":5959,"תמי":5960,"איזו":5961,"ריח":5962,"לאחד":5963,"כיה":5964,"קודת":5965,"ציפי":5966,"פוח":5967,"פורמה":5968,"art":5969,"אנה":5970,"בפתח":5971,"רעיון":5972,"שפה":5973,"אלת":5974,"מחות":5975,"וְאֶת":5976,"תכשיטים":5977,"יחידות":5978,"הקטן":5979,"ce":5980,"גג":5981,"חכמים":5982,"רוס":5983,"המשו":5984,"נוכל":5985,"להגיש":5986,"המקורי":5987,"שמעון":5988,"מכונות":5989,"עזרה":5990,"נכסים":5991,"ные":5992,"להשכרה":5993,"דתי":5994,"ירוק":5995,"מטה":5996,"מָה":5997,"צפון":5998,"רֵ":5999,"שגי":6000,"ריהוט":6001,"לונות":6002,"מתחילים":6003,"פסים":6004,"www":6005,"br":6006,"חמים":6007,"נצר":6008,"להשקי":6009,"מרבית":6010,"התהליך":6011,"מסעדה":6012,"מצה":6013,"טודנטים":6014,"גדלים":6015,"העין":6016,"האוצר":6017,"הראשי":6018,"ברחובות":6019,"__":6020,"נשק":6021,"ביקש":6022,"נובמבר":6023,"כלול":6024,"כללה":6025,"בתא":6026,"נתניה":6027,"סוצי":6028,"לקדם":6029,"במקומות":6030,"טוט":6031,"הפכו":6032,"הבנה":6033,"אשמים":6034,"סטה":6035,"חייבות":6036,"מנוע":6037,"אגב":6038,"לכבוד":6039,"מלווה":6040,"tr":6041,"במים":6042,"מלית":6043,"מקרים":6044,"רם":6045,"המטרה":6046,"היד":6047,"מיחה":6048,"מהלך":6049,"אחדות":6050,"כתבי":6051,"לבקר":6052,"מדרי":6053,"בניין":6054,"חלקים":6055,"עברת":6056,"אמו":6057,"מודר":6058,"מסור":6059,"הראש":6060,"במגוון":6061,"בריא":6062,"יוצאת":6063,"אוהבת":6064,"חסים":6065,"נֶ":6066,"רחל":6067,"רשימת":6068,"רוי":6069,"ואנחנו":6070,"ישראלים":6071,"בדק":6072,"מזג":6073,"התיי":6074,"עתיד":6075,"ההסכם":6076,"זציה":6077,"פץ":6078,"צבא":6079,"קשות":6080,"שניה":6081,"לידה":6082,"איה":6083,"חוזה":6084,"האקד":6085,"כרגע":6086,"וַיַּ":6087,"אריאל":6088,"פיינים":6089,"ינואר":6090,"63":6091,"98":6092,"גרה":6093,"ההנ":6094,"ונס":6095,"כספים":6096,"עמק":6097,"רלוונ":6098,"להעלות":6099,"אוג":6100,"התעופה":6101,"העברת":6102,"הצלחה":6103,"המוח":6104,"פעול":6105,"רפואית":6106,"ישירה":6107,"דיאטה":6108,"AL":6109,"ud":6110,"אכי":6111,"דשים":6112,"ואחרי":6113,"יאיר":6114,"כשי":6115,"המחש":6116,"נוקות":6117,"חיבור":6118,"כתבתי":6119,"הצעות":6120,"חתם":6121,"להישאר":6122,"להימנע":6123,"ממני":6124,"יוצרים":6125,"54":6126,"Le":6127,"nam":6128,"ya":6129,"מביא":6130,"נשא":6131,"המרת":6132,"הימה":6133,"והפ":6134,"פוני":6135,"במד":6136,"מקורות":6137,"הבד":6138,"כאבים":6139,"בחירת":6140,"הפרטים":6141,"הגישה":6142,"עמדה":6143,"מלונות":6144,"ארגונים":6145,"94":6146,"בחוק":6147,"גמר":6148,"גגות":6149,"לשאול":6150,"נפר":6151,"תִּ":6152,"הרשת":6153,"זוגיות":6154,"הבן":6155,"עודת":6156,"מזל":6157,"רחוב":6158,"רצח":6159,"הכנסות":6160,"אדו":6161,"האינ":6162,"חְ":6163,"ללו":6164,"נשל":6165,"רגיל":6166,"חופש":6167,"וירה":6168,"דרכה":6169,"גופי":6170,"החלה":6171,"זיקים":6172,"נייד":6173,"האישה":6174,"רחבה":6175,"יציר":6176,"דבריו":6177,"Un":6178,"וקו":6179,"לעלות":6180,"לדעתי":6181,"נדו":6182,"רטים":6183,"רישיון":6184,"חיובי":6185,"תירה":6186,"מתכון":6187,"יתן":6188,"כתבות":6189,"מפיין":6190,"רעיונות":6191,"58":6192,"מייל":6193,"עומדים":6194,"עצמאי":6195,"חלקם":6196,"המשיב":6197,"חמישי":6198,"לדוגמה":6199,"ies":6200,"ֹל":6201,"פּ":6202,"עילים":6203,"ואבי":6204,"זיות":6205,"ארוחת":6206,"אפריל":6207,"%.":6208,"der":6209,"טחי":6210,"בילות":6211,"חיב":6212,"בועות":6213,"במדי":6214,"זוכה":6215,"לחמת":6216,"בשעות":6217,"להתר":6218,"אמרתי":6219,"דיווח":6220,"Al":6221,"בפרט":6222,"באירופה":6223,"וך":6224,"נבו":6225,"פברואר":6226,"שיחות":6227,"סיכון":6228,"החמי":6229,"לבחון":6230,"מכון":6231,"כזב":6232,"רחובות":6233,"תנועת":6234,"56":6235,"חווה":6236,"הרה":6237,"קורות":6238,"פעמיים":6239,"לנשים":6240,"לביצוע":6241,"מצוין":6242,"גבס":6243,"טקס":6244,"כף":6245,"סגור":6246,"צעד":6247,"אומנות":6248,"ציין":6249,"בריו":6250,"שערים":6251,"הולכים":6252,"מבינים":6253,"לוקח":6254,"סטודנטים":6255,"השירותים":6256,"העתיקה":6257,"ייחודי":6258,"דצמבר":6259,"סאות":6260,"פתית":6261,"בוצת":6262,"פינת":6263,"טיס":6264,"משנת":6265,"בחוץ":6266,"העצמאות":6267,"97":6268,"דקים":6269,"וחה":6270,"חבל":6271,"עצי":6272,"רחוק":6273,"תמצאו":6274,"המנה":6275,"ברך":6276,"הוסיף":6277,"דרכו":6278,"האפש":6279,"לעת":6280,"לגור":6281,"נחל":6282,"איסור":6283,"ברזל":6284,"מקולים":6285,"הצעיר":6286,"חשובים":6287,"הכדור":6288,"פריד":6289,"החומר":6290,"הייחו":6291,"ark":6292,"בטיחות":6293,"להחזיר":6294,"גמי":6295,"ודו":6296,"וקים":6297,"לכולם":6298,"ממות":6299,"סלב":6300,"קסט":6301,"רִי":6302,"רכבת":6303,"וליה":6304,"מוֹ":6305,"קוז":6306,"באפשרות":6307,"ere":6308,"שרתים":6309,"She":6310,"אסי":6311,"ואחד":6312,"שלל":6313,"ליבר":6314,"אונד":6315,"קודה":6316,"קרת":6317,"השטח":6318,"להרגיש":6319,"מודיעין":6320,"חט":6321,"המכ":6322,"בוט":6323,"משתר":6324,"יוצר":6325,"השניים":6326,"יצאו":6327,"TO":6328,"אבני":6329,"ואתם":6330,"שּ":6331,"המנ":6332,"אתגר":6333,"מינות":6334,"תיר":6335,"פינה":6336,"חוקים":6337,"מרח":6338,"גילוי":6339,"דרג":6340,"לבטל":6341,"לשמש":6342,"שֶׁר":6343,"קניון":6344,"לדוגמא":6345,"אפרים":6346,"בבקשה":6347,"וסו":6348,"ישו":6349,"כאון":6350,"נמל":6351,"המצו":6352,"שין":6353,"מעת":6354,"מסגרת":6355,"מצלי":6356,"מטרי":6357,"מהירה":6358,"שוויון":6359,"אווירה":6360,"נמוכה":6361,"GB":6362,"דב":6363,"עְ":6364,"תחילת":6365,"ולק":6366,"חיצו":6367,"סייע":6368,"ויצ":6369,"הערבים":6370,"לשכת":6371,"לטים":6372,"2005":6373,"רגשות":6374,"בראשית":6375,"בהצלחה":6376,"43":6377,"46":6378,"הִי":6379,"כאחד":6380,"עברית":6381,"צבעים":6382,"רֵי":6383,"הידע":6384,"פירה":6385,"קוק":6386,"והסביבה":6387,"מצם":6388,"החברים":6389,"הנא":6390,"חשבת":6391,"המודר":6392,"ניינת":6393,"הַז":6394,"עובדי":6395,"ние":6396,"כלוסייה":6397,"בִ":6398,"בָר":6399,"וחים":6400,"למערכת":6401,"עֹ":6402,"רכבים":6403,"נוחות":6404,"בונים":6405,"לעוב":6406,"לחברת":6407,"בקרי":6408,"שעברה":6409,"ואיכות":6410,"התקנת":6411,"זיהוי":6412,"RO":6413,"מזמן":6414,"נקרא":6415,"שורה":6416,"עימות":6417,"שהגיע":6418,"מסכים":6419,"פוף":6420,"טוף":6421,"למן":6422,"לשני":6423,"ate":6424,"מעוניינים":6425,"רציתי":6426,"הגבוהה":6427,"pl":6428,"אדומים":6429,"גשה":6430,"דנה":6431,"זקה":6432,"לכת":6433,"מנטים":6434,"מושלמת":6435,"מיק":6436,"כיו":6437,"מתק":6438,"התחיל":6439,"מסעדות":6440,"העסקה":6441,"החוף":6442,"תחושת":6443,"שָׂ":6444,"תרופות":6445,"vi":6446,"דמבלדור":6447,"פלט":6448,"רכ":6449,"נישו":6450,"במאמר":6451,"זירה":6452,"קורת":6453,"מכיל":6454,"מטיקה":6455,"ועיצוב":6456,"יפים":6457,"סגן":6458,"תמר":6459,"רין":6460,"ובא":6461,"בונות":6462,"שראי":6463,"פייסבוק":6464,"מתוק":6465,"הרגל":6466,"יוקר":6467,"הספורט":6468,"שותפים":6469,"מטות":6470,"לעיר":6471,"להחליף":6472,"זיהום":6473,"אמצעי":6474,"об":6475,"זאב":6476,"ולע":6477,"וברת":6478,"ברכב":6479,"שוקולד":6480,"קווה":6481,"נותנים":6482,"גופים":6483,"הקב":6484,"אופנה":6485,"ואינו":6486,"אֲשֶׁר":6487,"תחושה":6488,"ממשלת":6489,"עשיר":6490,"קנ":6491,"רומנ":6492,"רווח":6493,"מעדי":6494,"התחו":6495,"צוג":6496,"מפלג":6497,"כרח":6498,"הצבאי":6499,"ציבורית":6500,"לזהות":6501,"но":6502,"אפו":6503,"בגר":6504,"דָּ":6505,"ומתן":6506,"כְּ":6507,"לנהל":6508,"מונ":6509,"לוג":6510,"מטבע":6511,"רצוי":6512,"יגאל":6513,"UUUUUUUUUUUUUUUU":6514,"לדבריו":6515,"AM":6516,"גנטי":6517,"וור":6518,"חמה":6519,"קצב":6520,"שטר":6521,"שומים":6522,"גיעים":6523,"תוכניות":6524,"מסחר":6525,"והרי":6526,"טונים":6527,"הסדרה":6528,"ילדה":6529,"אִם":6530,"חלי":6531,"יקרה":6532,"מופ":6533,"דוח":6534,"עלייה":6535,"מגן":6536,"!!!!":6537,"מעוצ":6538,"להסביר":6539,"Aviv":6540,".‬":6541,"Ro":6542,"אדר":6543,"הבלתי":6544,"יתו":6545,"כתו":6546,"סמוך":6547,"ניית":6548,"המתו":6549,"להכניס":6550,"תיאור":6551,"כלכלית":6552,"בהרבה":6553,"בעברית":6554,"סטנדר":6555,"נטל":6556,"בארצות":6557,"תגובות":6558,"ממשיך":6559,"אלקטרוני":6560,"הבחירות":6561,"אפריקה":6562,"בכמה":6563,"בִּ":6564,"תמ":6565,"לאלקט":6566,"סוכר":6567,"השרי":6568,"למכור":6569,"מדות":6570,"שאינה":6571,"להעניק":6572,"חמישה":6573,"52":6574,"לזכור":6575,"נטית":6576,"סמים":6577,"פסו":6578,"שניות":6579,"ובכלל":6580,"הודה":6581,"עיני":6582,"עיריות":6583,"ציע":6584,"משם":6585,"שתף":6586,"למטה":6587,"בשתי":6588,"שאלו":6589,"עליון":6590,"אינני":6591,"הביא":6592,"51":6593,"88":6594,"כבית":6595,"שכי":6596,"להבטיח":6597,"כלשהי":6598,"טיבי":6599,"ציאה":6600,"בתה":6601,"מצרים":6602,"הפס":6603,"הצבא":6604,"לגבעת":6605,"מקצועיות":6606,"עמם":6607,"לציבור":6608,"בעצמו":6609,"תלמידי":6610,"להציע":6611,"EL":6612,"בפרי":6613,"טניה":6614,"למתן":6615,"רצה":6616,"תיו":6617,"צימרים":6618,"בהקשר":6619,"האג":6620,"למלא":6621,"ערכה":6622,"הבט":6623,"הרצאות":6624,"התוצאה":6625,"כזאת":6626,"ננה":6627,"סך":6628,"דינו":6629,"לונה":6630,"קרטיה":6631,"ישנו":6632,"למדו":6633,"לחדר":6634,"מאוב":6635,"לראש":6636,"נדמה":6637,"אירועי":6638,"אלוהים":6639,"באילת":6640,"אֵת":6641,"במועד":6642,"לזכות":6643,"פסטיבל":6644,"הֵ":6645,"הבור":6646,"חכם":6647,"קלות":6648,"להב":6649,"אופניים":6650,"בראשון":6651,"לומי":6652,"לוחות":6653,"ארק":6654,"מאסר":6655,"מאמין":6656,"פריה":6657,"בחינם":6658,"בשיעור":6659,"צביעה":6660,"צביעת":6661,"יִם":6662,"להשקיע":6663,");":6664,"זמה":6665,"לפו":6666,"מולי":6667,"מבני":6668,"המניות":6669,"שיה":6670,"שיטות":6671,"פילי":6672,"לתקן":6673,"מטרה":6674,"באיכות":6675,"בשיתוף":6676,"שמירה":6677,"המשפטי":6678,"AA":6679,"זת":6680,"כבלים":6681,"קולים":6682,"שלנות":6683,"המעו":6684,"חושבת":6685,"שומן":6686,"מרחב":6687,"תוכנה":6688,"זהה":6689,"כוכבים":6690,"הערה":6691,"לברי":6692,"חרור":6693,"אחריו":6694,"הפרטי":6695,"עשויה":6696,"ארגוני":6697,"SO":6698,"og":6699,"דגם":6700,"כַּ":6701,"צאת":6702,"רֹ":6703,"שגר":6704,"שהייתה":6705,"ביתי":6706,"מומחים":6707,"תונות":6708,"מסגרות":6709,"האחרים":6710,"חלתי":6711,"הכלל":6712,"וכדומה":6713,"הָאָ":6714,"שבעה":6715,"הבחירה":6716,"דָה":6717,"יקר":6718,"לולי":6719,"שַ":6720,"שדי":6721,"שמורות":6722,"המצוי":6723,"מוּ":6724,"להוריד":6725,"הוי":6726,"מהות":6727,"סיני":6728,"דרכי":6729,"בתנאי":6730,"הסבר":6731,"הצטר":6732,"חרדה":6733,"חתה":6734,"וחלק":6735,"תחלה":6736,"להוביל":6737,"נהיגה":6738,"פארק":6739,"האמיתי":6740,"Con":6741,"הפת":6742,"לזוגות":6743,"עש":6744,"קַ":6745,"קציה":6746,"שדרות":6747,"שימים":6748,"מועצת":6749,"להקים":6750,"ציג":6751,"גיעות":6752,"דרגה":6753,"מספק":6754,"הקלי":6755,"הבנתי":6756,"גרפיה":6757,"עצמית":6758,"הזכות":6759,"נגרות":6760,"השואה":6761,"מערך":6762,"לפיכך":6763,"דמויות":6764,"מסוימת":6765,"ימין":6766,"עמות":6767,"היטים":6768,"עלולים":6769,"תיבה":6770,"סופו":6771,"לבקש":6772,"2000":6773,"יחסות":6774,"all":6775,"שמעתי":6776,"XXXX":6777,"חטי":6778,"יעיל":6779,"מעוד":6780,"רָה":6781,"שפות":6782,"המעבר":6783,"פינוי":6784,"פיננסי":6785,"גינון":6786,"הערבי":6787,"חקלאות":6788,"שנייה":6789,"משתנה":6790,"קולנוע":6791,"בלונדי":6792,"ass":6793,"מגיעה":6794,"RE":6795,"ib":6796,"בשירות":6797,"הֶ":6798,"הקרקע":6799,"למעט":6800,"נול":6801,"פקוד":6802,"דיע":6803,"כלת":6804,"קיו":6805,"מצאתי":6806,"טרנטי":6807,"האשראי":6808,"מגורים":6809,"דורש":6810,"נפג":6811,"בַּ":6812,"יוצאים":6813,"ליטוש":6814,"לבעלי":6815,"סלא":6816,"המלח":6817,"עלולה":6818,"גיא":6819,"והג":6820,"מחקרים":6821,"בארי":6822,"מאמן":6823,"מדריך":6824,"נסט":6825,"בסגנון":6826,"כנתא":6827,"שֵׁ":6828,"ue":6829,"טעות":6830,"כַ":6831,"לפתח":6832,"נעימה":6833,"עִ":6834,"שצ":6835,"המכשיר":6836,"שיניים":6837,"בעלה":6838,"יונה":6839,"סטאר":6840,"לפרו":6841,"בעיצוב":6842,"פסח":6843,"פולין":6844,"החומרים":6845,"הכללי":6846,"רבינו":6847,"שיפוץ":6848,"גשר":6849,"גוריות":6850,"טלוויזיה":6851,"נשו":6852,"שבא":6853,"המקרים":6854,"איתה":6855,"שיותר":6856,"מוכנים":6857,"דיש":6858,"לוּ":6859,"שומע":6860,"קיבוץ":6861,"הרים":6862,"סוקה":6863,"יוחנן":6864,"ערבות":6865,"בקול":6866,"הגשת":6867,"אפלי":6868,"לאומיים":6869,"עוברים":6870,"קולות":6871,"מנהלת":6872,"מסוגל":6873,"מכירה":6874,"הירדן":6875,"אנגלית":6876,"לאלקטרוניקה":6877,"/>":6878,"ва":6879,"דד":6880,"ופר":6881,"כחים":6882,"לאל":6883,"פילים":6884,"לרגע":6885,"להתאים":6886,"שניהם":6887,"מגלה":6888,"בחירה":6889,"הגיוס":6890,"זכרון":6891,"גולן":6892,"אלקטרו":6893,"אסף":6894,"בפעילות":6895,"ההבדל":6896,"והיו":6897,"תְּ":6898,"עוט":6899,"זהר":6900,"התכנית":6901,"גופו":6902,"במלון":6903,"חקלאי":6904,"אזורי":6905,"פוליטי":6906,"וירטו":6907,"מהירות":6908,"באשדוד":6909,"עקיבא":6910,"78":6911,"אֹת":6912,"חמד":6913,"יבנה":6914,"הודים":6915,"טיולי":6916,"מרצ":6917,"עודה":6918,"יושב":6919,"לקרי":6920,"הנדר":6921,"המוסד":6922,"המשנה":6923,"פילוסו":6924,"מאפשרים":6925,"הובלות":6926,"טכנולוגיות":6927,"53":6928,"בטיפול":6929,"גנו":6930,"זקים":6931,"תביעות":6932,"אווה":6933,"חיית":6934,"גידול":6935,"יופי":6936,"השולחן":6937,"במאה":6938,"חנויות":6939,"איתור":6940,"המתאים":6941,"חשיבה":6942,"59":6943,"וצי":6944,"סמי":6945,"סמכות":6946,"טרך":6947,"יתרונות":6948,"הקפי":6949,"הכלים":6950,"הספרים":6951,"מבוא":6952,"תשומת":6953,"400":6954,"בשום":6955,"ההגנה":6956,"חח":6957,"נעל":6958,"ניכר":6959,"מילוי":6960,"וברים":6961,"מתכות":6962,"קיבלו":6963,"מעשי":6964,"והכל":6965,"החדר":6966,"מחלקת":6967,"במבצע":6968,"כוללים":6969,"בשפה":6970,"אורחים":6971,"משפח":6972,"סטיות":6973,"מקיף":6974,"מבצעים":6975,"yat":6976,"הבקשה":6977,"נפרד":6978,"עכו":6979,"רשמי":6980,"קומו":6981,"הבול":6982,"אנא":6983,"המוות":6984,"פורטל":6985,"לטענת":6986,"מספרת":6987,"ועכשיו":6988,"הגדולות":6989,"המרכזית":6990,"מבחן":6991,"נפו":6992,"המדי":6993,"המבקשת":6994,"מתחם":6995,"ערכים":6996,"פורטו":6997,"מודל":6998,"הלימוד":6999,"פרויי":7000,"החלטת":7001,"התקנה":7002,"הופעות":7003,"בסרטון":7004,"250":7005,"טעים":7006,"סגי":7007,"קָ":7008,"מובן":7009,"דירת":7010,"ברצו":7011,"חוזים":7012,"קריאה":7013,"לשינוי":7014,"נדרש":7015,"דקור":7016,"וכמו":7017,"בינה":7018,"איור":7019,"כישה":7020,"קיץ":7021,"גין":7022,"פתע":7023,"הבנייה":7024,"זרם":7025,"מלכת":7026,"לדאוג":7027,"הקודש":7028,"המסך":7029,"הוראה":7030,"החדשים":7031,"אטי":7032,"חדרה":7033,"יובל":7034,"לדרך":7035,"שפר":7036,"חופשי":7037,"בקרית":7038,"חשף":7039,"אליעזר":7040,"חזון":7041,"בינתיים":7042,"שָּׁ":7043,"משתרמטות":7044,"Ch":7045,"[…":7046,"ре":7047,"אבחון":7048,"זמין":7049,"טאות":7050,"צנרת":7051,"בירים":7052,"המחלקה":7053,"איחוד":7054,"נהדר":7055,"קיבלתי":7056,"עוף":7057,"פונה":7058,"ישב":7059,"מחברים":7060,"הקשה":7061,"שאמר":7062,"פשטות":7063,"ארוכות":7064,"המקצוע":7065,"הערכה":7066,"ie":7067,"בֵ":7068,"וכבר":7069,"לאירוע":7070,"תזונה":7071,"”.":7072,"להגן":7073,"לאלו":7074,"חיוב":7075,"הרש":7076,"הנר":7077,"אשתו":7078,"ספור":7079,"השיטה":7080,"פריטים":7081,"one":7082,"קרובות":7083,"בודדים":7084,"המשיבה":7085,"דוגמה":7086,"בְּנֵי":7087,"רכישת":7088,"ישראלית":7089,"פלסטיק":7090,"ֶת":7091,"אשה":7092,"גבולות":7093,"הכוח":7094,"חדים":7095,"לּ":7096,"סיכו":7097,"פרטית":7098,"ציצים":7099,"שהפ":7100,"ויוצ":7101,"התג":7102,"הרת":7103,"אביס":7104,"ind":7105,"זכאי":7106,"אמיתית":7107,"הופעה":7108,"נצרת":7109,"הכוללת":7110,"TED":7111,"120":7112,"iz":7113,"net":7114,"בקרים":7115,"גְ":7116,"רִ":7117,"שהיתה":7118,"תמורת":7119,"אייל":7120,"דינ":7121,"טיפולי":7122,"הרחב":7123,"טרור":7124,"האדמה":7125,"רותם":7126,"גדולי":7127,"ואנו":7128,"הכרי":7129,"לפל":7130,"העיצוב":7131,"משפחתי":7132,"מציעים":7133,"קדמות":7134,"וַיָּ":7135,"בלונים":7136,"מוסיפים":7137,"מצליחים":7138,"ההזמנה":7139,"נעלי":7140,"לימות":7141,"נוחים":7142,"הירה":7143,"לאן":7144,"חינו":7145,"עיקרי":7146,"כירו":7147,"פואה":7148,"העת":7149,"לקהל":7150,"יהֶם":7151,"לעסקים":7152,"גלגל":7153,"עובדה":7154,"ort":7155,"פלילי":7156,"\":":7157,"-%":7158,"ом":7159,"במרחק":7160,"בגודל":7161,"הבין":7162,"הבש":7163,"ירקות":7164,"תנאים":7165,"ולהי":7166,"שלמי":7167,"מוי":7168,"מוות":7169,"ברצי":7170,"הוותי":7171,"הועדה":7172,"קיע":7173,"וין":7174,"זהות":7175,"מסביב":7176,"השניה":7177,"לשנת":7178,"הכפר":7179,"מספרים":7180,"ספרות":7181,"טלציה":7182,"רחבי":7183,"וּבְ":7184,"המערבי":7185,"לייצר":7186,"הפועלים":7187,"ממשיכים":7188,"91":7189,"An":7190,"באירוע":7191,"וָ":7192,"וזו":7193,"מֶלֶךְ":7194,"פאה":7195,"צורה":7196,"שלחו":7197,"שיטה":7198,"עידן":7199,"קופות":7200,"דרגות":7201,"קראתי":7202,"מאמר":7203,"מפעל":7204,"שלומי":7205,"פסור":7206,"שעשו":7207,"הליכה":7208,"להצטרף":7209,"שחקן":7210,"טיפולים":7211,"אשת":7212,"כֹּ":7213,"סלול":7214,"סכון":7215,"סמך":7216,"עֶ":7217,"שיקול":7218,"אוט":7219,"הודעות":7220,"מהנד":7221,"בעון":7222,"ארים":7223,"החול":7224,"בשבתו":7225,"הבסי":7226,"וריים":7227,"לנושא":7228,"מזכיר":7229,"המשפטים":7230,"מרכזית":7231,"ore":7232,"SE":7233,"ספו":7234,"עולות":7235,"המטבח":7236,"נוכח":7237,"הישיבה":7238,"שיט":7239,"חייהם":7240,"בקשות":7241,"עובדת":7242,"המסור":7243,"ערוכה":7244,"מארט":7245,"iryat":7246,"תהליכי":7247,"ial":7248,"ֹא":7249,"חולה":7250,"משלי":7251,"שמק":7252,"שפע":7253,"בידוד":7254,"המבקר":7255,"היכן":7256,"דיוק":7257,"מהבית":7258,"כישת":7259,"הראל":7260,"מחלה":7261,"ספא":7262,"המשמעות":7263,"אופטי":7264,"אורח":7265,"יצירה":7266,"המחלה":7267,"לָיו":7268,"המאבק":7269,"כרמיאל":7270,"[…]":7271,"אמונה":7272,"בכו":7273,"טט":7274,"כחול":7275,"לפועל":7276,"פָ":7277,"שפת":7278,"תָ":7279,"ניעת":7280,"מיכל":7281,"לוותר":7282,"טיסה":7283,"מחשבה":7284,"במלו":7285,"לתה":7286,"מאמינים":7287,"הבניין":7288,"ספקת":7289,"מטרת":7290,"נפח":7291,"דוגמאות":7292,"אישיות":7293,"ציבורי":7294,"נורא":7295,"תגובה":7296,"62":7297,"con":7298,"בצה":7299,"בנסיבות":7300,"נפי":7301,"פשת":7302,"קניות":7303,"משוב":7304,"גילי":7305,"החליטה":7306,"הסט":7307,"בריטניה":7308,"נטען":7309,"לפיד":7310,"תקנות":7311,"סטיקה":7312,"עשויים":7313,"מועדון":7314,"בנתניה":7315,"שּׁ":7316,"שכתב":7317,"רישום":7318,"מיטב":7319,"עלתה":7320,"עיד":7321,"קיות":7322,"דרור":7323,"מעבד":7324,"לערוך":7325,"הנפש":7326,"איננה":7327,"בלין":7328,"בגדי":7329,"בגדים":7330,"פלל":7331,"זכרו":7332,"הנתבעים":7333,"טבעית":7334,"הובלה":7335,"האהבה":7336,"המזר":7337,"להפסיק":7338,"בוודאי":7339,"מתה":7340,"אהרון":7341,"ערבי":7342,"בטא":7343,"תקבל":7344,"מכירות":7345,"המסלול":7346,"מכונת":7347,"הציבורי":7348,"קצרה":7349,"מתקדמים":7350,"77":7351,"הכת":7352,"הפתרון":7353,"משלו":7354,"תאור":7355,"תובע":7356,"נוני":7357,"מיזוג":7358,"לואי":7359,"שוד":7360,"בתר":7361,"הנחה":7362,"אליות":7363,"חתת":7364,"הכנה":7365,"הדיגי":7366,"פוליטית":7367,"יחיד":7368,"בראשות":7369,"הגבוה":7370,"SM":7371,"ha":7372,"io":7373,"האחר":7374,"עמית":7375,"פְּ":7376,"קובע":7377,"מוסיקה":7378,"ברצ":7379,"מתנות":7380,"הארו":7381,"העבר":7382,"העסקים":7383,"עליהן":7384,"שָׁ":7385,"השלטון":7386,"ook":7387,"AC":7388,"ам":7389,"הכות":7390,"עבירות":7391,"קרון":7392,"שאו":7393,"תורת":7394,"תעבורה":7395,"המתי":7396,"מיס":7397,"ציונ":7398,"בהכרח":7399,"לקות":7400,"לתר":7401,"מדעי":7402,"בודד":7403,"מציאות":7404,"נוסעים":7405,"הולכת":7406,"בפייסבוק":7407,"בנושאים":7408,"השלישית":7409,"משותף":7410,"הנדסה":7411,"\").":7412,".[":7413,"600":7414,"фо":7415,"דגים":7416,"הורי":7417,"טמן":7418,"ירים":7419,"עברי":7420,"פז":7421,"שחו":7422,"”,":7423,"המסו":7424,"רישות":7425,"הוכ":7426,"לומדים":7427,"קוש":7428,"בהתחלה":7429,"נתבעת":7430,"מצר":7431,"שתהיה":7432,"גלם":7433,"מפגש":7434,"העירייה":7435,"המילים":7436,"בלוג":7437,"המסחר":7438,"חובת":7439,"לעצמי":7440,"הרצליה":7441,"יעל":7442,"ניון":7443,"נוצר":7444,"בוּ":7445,"עיפים":7446,"שוואה":7447,"מרגישים":7448,"גיוס":7449,"דושים":7450,"מפולי":7451,"אינד":7452,"פסקה":7453,"למיד":7454,"הנוגע":7455,"נחמד":7456,"עַד":7457,"קירור":7458,"ייחודית":7459,"EN":7460,"חמצ":7461,"לפתור":7462,"תשלומים":7463,"בירי":7464,"מוביל":7465,"להנ":7466,"דיעין":7467,"כללת":7468,"שהות":7469,"מספקים":7470,"מצלמות":7471,"יואב":7472,"לתפקיד":7473,"לגן":7474,"מיוחדות":7475,"AT":7476,"US":7477,"לגוף":7478,"צִ":7479,"שיצ":7480,"שיית":7481,"כיא":7482,"קומה":7483,"אחסון":7484,"הרמה":7485,"לחצו":7486,"הגלי":7487,"הצלח":7488,"המובילים":7489,"לרגל":7490,"לפיה":7491,"הריון":7492,"גולות":7493,"כביש":7494,"הבריטי":7495,"ace":7496,"הפנימי":7497,"!\"":7498,"Pro":7499,"האחריות":7500,"ללי":7501,"מבחר":7502,"נִים":7503,"עמה":7504,"שמצ":7505,"תאריך":7506,"ולקבל":7507,"ובנות":7508,"סיות":7509,"כיים":7510,"אהבתי":7511,"צוק":7512,"היהדות":7513,"כאבי":7514,"בסבי":7515,"ילן":7516,"קיימו":7517,"ell":7518,"2003":7519,"קליטות":7520,"שייך":7521,"אישיים":7522,"תּוֹ":7523,"חופשית":7524,"הנסיעה":7525,"טראמפ":7526,"בחום":7527,"נגל":7528,"צעה":7529,"תחילה":7530,"ביוב":7531,"ליא":7532,"שיהיו":7533,"להאמין":7534,"אוֹ":7535,"אומה":7536,"לוודא":7537,"נהגות":7538,"פיזי":7539,"סיוע":7540,"גינות":7541,"התנגדות":7542,"והח":7543,"והק":7544,"יהדות":7545,"מחייב":7546,"חיינו":7547,"הפרסום":7548,"בשילוב":7549,"בָּ":7550,"המאשימה":7551,"סדנאות":7552,"אחיו":7553,"העולמי":7554,"HO":7555,"ach":7556,"ob":7557,"от":7558,"ци":7559,"האינטר":7560,"כוהול":7561,"מלט":7562,"עשתה":7563,"בילו":7564,"המאמר":7565,"חיד":7566,"בודת":7567,"תופעות":7568,"התנאים":7569,"סומים":7570,"העותרים":7571,"במג":7572,"לתקופה":7573,"מאגר":7574,"הנגב":7575,"מנשה":7576,"נדב":7577,"טבעות":7578,"הבל":7579,"חף":7580,"כבו":7581,"מזי":7582,"מנסים":7583,"היב":7584,"איים":7585,"ציור":7586,"התאמה":7587,"בתפקיד":7588,"ישנן":7589,"מאשימה":7590,"זיל":7591,"ָהּ":7592,"יעשה":7593,"וְלֹא":7594,"מוצלח":7595,"כנסים":7596,"המשיח":7597,"150":7598,"ash":7599,"שקיבל":7600,"לוקחת":7601,"אספקת":7602,"הְ":7603,"זכתה":7604,"כפת":7605,"עבירה":7606,"פנ":7607,"רוסיה":7608,"נוב":7609,"הידי":7610,"קיבלה":7611,"גייס":7612,"באנגלית":7613,"מאבק":7614,"הנזק":7615,"בחול":7616,"נגדו":7617,"בסמוך":7618,"העיתון":7619,"תקציב":7620,"הסיכון":7621,"במילים":7622,"במשפט":7623,"נוסח":7624,"לשיפור":7625,"תכנים":7626,"המבוטח":7627,"בתחומי":7628,"אובדן":7629,"הטכנולוגיה":7630,"En":7631,"בדומה":7632,"יגיע":7633,"לדו":7634,"נֵ":7635,"נבח":7636,"קמ":7637,"תַּ":7638,"לילות":7639,"הינם":7640,"תיחה":7641,"מתאימה":7642,"ארז":7643,"אלימות":7644,"בסביבה":7645,"הדף":7646,"מכשירי":7647,"ost":7648,"רביעי":7649,"מקבלת":7650,"הראשית":7651,"המלצה":7652,"85":7653,"ואחר":7654,"מקרקעין":7655,"נגישות":7656,"המדע":7657,"המנהל":7658,"להבות":7659,"תינוק":7660,"עופר":7661,"בתשלום":7662,"צועות":7663,"לער":7664,"לבסוף":7665,"בחברת":7666,"אליכם":7667,"שערי":7668,"יעץ":7669,"בתום":7670,"ולוגיות":7671,"כדורגל":7672,"ממליצים":7673,"MI":7674,"ארונות":7675,"ההד":7676,"התוצאות":7677,"שרית":7678,"תעודת":7679,"ביאלי":7680,"המה":7681,"מודעות":7682,"מהת":7683,"נותנת":7684,"נתק":7685,"מחזור":7686,"הספק":7687,"שראלים":7688,"האיכות":7689,"מקומי":7690,"ומועצות":7691,"הרצון":7692,"הגורם":7693,"fr":7694,"ал":7695,"חניה":7696,"פשה":7697,"פנות":7698,"צורים":7699,"ותח":7700,"ליפות":7701,"אוז":7702,"בוחרים":7703,"אחרונה":7704,"מסמך":7705,"מצות":7706,"החג":7707,"מאמץ":7708,"הביניים":7709,"הטלפון":7710,"שבועיים":7711,"השופטים":7712,"בהתאמה":7713,"להראות":7714,"מכרזים":7715,"כתיבה":7716,"החברתית":7717,"שַׁ":7718,"79":7719,"ge":7720,"חלון":7721,"מקר":7722,"נעם":7723,"וליו":7724,"ובס":7725,"תיבת":7726,"טיפה":7727,"קוף":7728,"פרש":7729,"השאלות":7730,"זום":7731,"זוקה":7732,"לעסוק":7733,"הצעה":7734,"ספקים":7735,"כמויות":7736,"שנמצא":7737,"שמתי":7738,"ניהן":7739,"החוץ":7740,"החודש":7741,"בירור":7742,"הרופא":7743,"המראה":7744,"תקוה":7745,"מִצְ":7746,"הופכים":7747,"השתמש":7748,"ספיר":7749,"ive":7750,"החשובים":7751,"אוטומטי":7752,"הודיע":7753,"1000":7754,"fice":7755,"ment":7756,"pr":7757,"האירועים":7758,"ובית":7759,"ולכל":7760,"היחסים":7761,"דיקות":7762,"אוסף":7763,"שומה":7764,"עוזר":7765,"בהז":7766,"סוגים":7767,"לתח":7768,"פניו":7769,"בחנות":7770,"לפים":7771,"מנצ":7772,"כשהיא":7773,"תחנת":7774,"הסיכוי":7775,"מלאים":7776,"באוניברסיטת":7777,"הָעָם":7778,"נקודה":7779,"כִּי":7780,"הקרובה":7781,"האנושי":7782,"CD":7783,"ит":7784,"אמים":7785,"דפוס":7786,"החייב":7787,"מלמד":7788,"עורים":7789,"בישי":7790,"מושב":7791,"להשאיר":7792,"פיקוח":7793,"מתחילה":7794,"מרגישה":7795,"התשלום":7796,"ישבות":7797,"לחבר":7798,"הפעלת":7799,"זיון":7800,"פניה":7801,"חרדים":7802,"הייצור":7803,"המערערת":7804,"עזרי":7805,"התחרות":7806,"בקיצור":7807,"מזרחי":7808,"זקוקים":7809,"ממוקם":7810,"דיגיטלי":7811,"אקס":7812,"בהיסטוריה":7813,"דקה":7814,"הלאה":7815,"זמנים":7816,"למרכז":7817,"עולים":7818,"שבח":7819,"המורה":7820,"המקרה":7821,"היגה":7822,"מיקס":7823,"נהלת":7824,"ציעה":7825,"משטרת":7826,"תושבים":7827,"וידי":7828,"מסויי":7829,"למק":7830,"הנכונה":7831,"מדהימה":7832,"עתם":7833,"בצבע":7834,"פשט":7835,"התושבים":7836,"להשתתף":7837,"אצלי":7838,"הגורמים":7839,"בתחומים":7840,"המותג":7841,"עצום":7842,"%,":7843,"גנות":7844,"דֹ":7845,"וץ":7846,"כשנ":7847,"תשכ":7848,"תעופה":7849,"ניסו":7850,"ביתו":7851,"המשא":7852,"הממשל":7853,"המדינות":7854,"דיבר":7855,"חיתוך":7856,"לווה":7857,"חוט":7858,"קודש":7859,"מרן":7860,"עוזי":7861,"מעליות":7862,"התקשר":7863,"הרבים":7864,"נתנו":7865,"זוכר":7866,"המושלם":7867,"בסס":7868,"בארגון":7869,"הכלכלה":7870,"מוצאים":7871,"פועלת":7872,"גולשים":7873,"רעננה":7874,"ix":7875,"אכז":7876,"הבת":7877,"וחשבון":7878,"זורי":7879,"זמני":7880,"חץ":7881,"כסוך":7882,"לשירות":7883,"נגו":7884,"סבור":7885,"עֵי":7886,"שימות":7887,"נהלות":7888,"הרגע":7889,"בתגובה":7890,"גוונים":7891,"בשעת":7892,"נראית":7893,"בטחה":7894,"מגע":7895,"הכלכלית":7896,"ans":7897,"תעשיי":7898,"מסתבר":7899,"הראשונות":7900,"שפירא":7901,"פוטנציאל":7902,"אינדקס":7903,"74":7904,"ST":7905,"az":7906,"me":7907,"ou":7908,"באחת":7909,"וקר":7910,"טול":7911,"לגיל":7912,"נכות":7913,"סכו":7914,"מילא":7915,"קודות":7916,"גוג":7917,"החליטו":7918,"הפעלה":7919,"לשנה":7920,"לרמת":7921,"ממך":7922,"השינוי":7923,"ילדות":7924,"החוצה":7925,"החוויה":7926,"נתיב":7927,"ist":7928,"שבהן":7929,"תלמיד":7930,"חילוף":7931,"וַיִּ":7932,"\"),":7933,"דִים":7934,"כסים":7935,"מכה":7936,"בידו":7937,"לישון":7938,"מיומ":7939,"להחלט":7940,"קובי":7941,"בתורה":7942,"לחסוך":7943,"גדלת":7944,"הקורס":7945,"מפורט":7946,"קשרים":7947,"קבוצ":7948,"יוצרת":7949,"וחיפוי":7950,"הקטנים":7951,"אזרחי":7952,"אמריקה":7953,"הבינלאומי":7954,"RI":7955,"ол":7956,"נחום":7957,"עניי":7958,"עניינים":7959,"ניקים":7960,"עיונות":7961,"מתקדם":7962,"עודי":7963,"טוני":7964,"טוענים":7965,"לענות":7966,"מאן":7967,"ואולם":7968,"שאולי":7969,"ערכת":7970,"הדלת":7971,"מיועד":7972,"מטור":7973,"ירד":7974,"הניסיון":7975,"המשתתפים":7976,"המפלגה":7977,"עוצמה":7978,"השראה":7979,"הַמֶּלֶךְ":7980,"ואתה":7981,"ואחרים":7982,"חרת":7983,"יתי":7984,"מגר":7985,"עכ":7986,"עִי":7987,"פאי":7988,"פולים":7989,"קלאות":7990,"רכש":7991,"לירושלים":7992,"צירה":7993,"תוג":7994,"החשוב":7995,"יומיים":7996,"לעצור":7997,"פנימי":7998,"בטלפון":7999,"ממלא":8000,"ידיעות":8001,"מבטי":8002,"הלל":8003,"אמץ":8004,"בשימוש":8005,"עסקיים":8006,"הפיננסי":8007,"בתוספת":8008,"ידעתי":8009,"אבטחה":8010,"Ex":8011,"на":8012,"ֶשׁ":8013,"בטרם":8014,"לשר":8015,"לשלו":8016,"להמשך":8017,"לניהול":8018,"אתילן":8019,"להפעיל":8020,"ברכת":8021,"חוּ":8022,"שוות":8023,"טיבית":8024,"קושי":8025,"גיר":8026,"הרכבת":8027,"והדבר":8028,"בתנאים":8029,"אליזם":8030,"אנדרו":8031,"שנראה":8032,"אזל":8033,"ועדיין":8034,"לנסו":8035,"הפרעות":8036,"מסיי":8037,"בטוחה":8038,"באחריות":8039,"וחת":8040,"כפול":8041,"כשהם":8042,"לפרסם":8043,"פויות":8044,"פדיה":8045,"שדות":8046,"שבט":8047,"שלטון":8048,"להט":8049,"מרשים":8050,"אותיות":8051,"הרגשתי":8052,"החוב":8053,"העברה":8054,"למכירה":8055,"מפקד":8056,"לדון":8057,"ללקוח":8058,"מקומית":8059,"חודשיים":8060,"מבוגרים":8061,"הרצאה":8062,"להציל":8063,"העתיד":8064,"לדיון":8065,"אינסטלציה":8066,"אֱלֹהִים":8067,"per":8068,"הקיים":8069,"חצ":8070,"מזרח":8071,"שתוכלו":8072,"ולדת":8073,"ביטו":8074,"שיתו":8075,"פיין":8076,"שומר":8077,"פרנק":8078,"שהס":8079,"עויות":8080,"התחלתי":8081,"הסביר":8082,"הקלטות":8083,"ערכו":8084,"הבנות":8085,"פוריה":8086,"צרכים":8087,"הטלוויזיה":8088,"תקבלו":8089,"ברוח":8090,"חלל":8091,"הציונית":8092,"החילו":8093,"דרישה":8094,"שְׂ":8095,"האורחים":8096,"השתתפות":8097,"השחקנים":8098,"אמבטיה":8099,"our":8100,"ללמד":8101,"מבקשת":8102,"סמו":8103,"עמנו":8104,"פחד":8105,"רמה":8106,"רמקולים":8107,"רשלנות":8108,"וריו":8109,"המכי":8110,"לינג":8111,"מופיע":8112,"ברכות":8113,"משני":8114,"התפו":8115,"התובעים":8116,"והאם":8117,"טומים":8118,"כולן":8119,"בחורה":8120,"אפל":8121,"האישית":8122,"נפל":8123,"הדרכה":8124,"ity":8125,"מִים":8126,"איכותיים":8127,"להצלחה":8128,"כְּ":8129,"שופטים":8130,"],[":8131,"וואלה":8132,"Ави":8133,"דתית":8134,"חמו":8135,"ריס":8136,"מוזי":8137,"אונים":8138,"עלויות":8139,"בונה":8140,"הרלוונ":8141,"למג":8142,"למדינה":8143,"זירת":8144,"בחזרה":8145,"עצמנו":8146,"גורר":8147,"משפטית":8148,"הַג":8149,"ראובן":8150,"המסע":8151,"עסקה":8152,"דרוש":8153,"המקומות":8154,"מיליוני":8155,"אמריק":8156,"התנהלות":8157,"אמות":8158,"בבת":8159,"וכאשר":8160,"ינות":8161,"לגר":8162,"נֹ":8163,"פנט":8164,"צמח":8165,"רמון":8166,"רגילים":8167,"שבית":8168,"איטליה":8169,"לוד":8170,"עוּ":8171,"נותר":8172,"גונים":8173,"הפסד":8174,"הצליחו":8175,"בדף":8176,"לפיתוח":8177,"קבעו":8178,"נציגי":8179,"Ar":8180,"Com":8181,"пр":8182,"הלוי":8183,"וִ":8184,"חנייה":8185,"כבל":8186,"מאית":8187,"נאשמים":8188,"עתו":8189,"אוניברסיטת":8190,"טיסות":8191,"פרות":8192,"ארת":8193,"ישעי":8194,"בצורת":8195,"הדת":8196,"הדירות":8197,"וְהִ":8198,"מסיבות":8199,"סטרט":8200,"אזרחים":8201,"ния":8202,"לברר":8203,"סגנון":8204,"להתייחס":8205,"ביאליק":8206,"72":8207,"Pl":8208,"Тель":8209,"אזי":8210,"בדות":8211,"האת":8212,"ממת":8213,"נמסר":8214,"סובל":8215,"רִים":8216,"היעד":8217,"אושר":8218,"אוֹת":8219,"שואל":8220,"ויית":8221,"דוא":8222,"כוון":8223,"מחפש":8224,"אהבת":8225,"ערעור":8226,"מלול":8227,"...]":8228,"מטרות":8229,"הזהב":8230,"הליכים":8231,"קיימה":8232,"נציג":8233,"משותפת":8234,"הנוכחית":8235,"92":8236,"ON":8237,"ect":8238,"ַרְ":8239,"בכנס":8240,"גשם":8241,"ווק":8242,"וניהול":8243,"זמר":8244,"כשאני":8245,"ננת":8246,"נהיה":8247,"רמי":8248,"שאותו":8249,"שלאחר":8250,"המסים":8251,"מיון":8252,"מרחבי":8253,"בעמוד":8254,"הרשמי":8255,"השמי":8256,"במדבר":8257,"במטבח":8258,"למשרד":8259,"הבדיקה":8260,"נראים":8261,"צורת":8262,"ידיים":8263,"לסרט":8264,"דעתם":8265,"להודות":8266,"משפטים":8267,"תהליכים":8268,"96":8269,"Kiryat":8270,"בכלי":8271,"בפרק":8272,"הבלעדי":8273,"יעד":8274,"רשימה":8275,"היל":8276,"מיקום":8277,"מינר":8278,"ישנים":8279,"טופס":8280,"ואכן":8281,"מקרי":8282,"בעידן":8283,"בטן":8284,"העיניים":8285,"שקלון":8286,"וְהָ":8287,"הַנ":8288,"עמדים":8289,"חלוקת":8290,"שִׂ":8291,"הקודמת":8292,"Road":8293,"che":8294,"Яф":8295,"בגן":8296,"לשוק":8297,"פקד":8298,"צבעי":8299,"ניט":8300,"המין":8301,"מונית":8302,"חיש":8303,"קוני":8304,"פרטיות":8305,"משול":8306,"במזרח":8307,"לתאר":8308,"זונות":8309,"עדן":8310,"שנאמר":8311,"כנרת":8312,"אורן":8313,"שקורה":8314,"בגובה":8315,"חולון":8316,"גבוהות":8317,"נכסי":8318,"בטוחים":8319,"הלאומית":8320,"הרביעי":8321,"עבודתו":8322,"93":8323,"בבור":8324,"מלמ":8325,"ביצים":8326,"רובי":8327,"ליצירת":8328,"סופט":8329,"החת":8330,"האנרגיה":8331,"השכר":8332,"לקס":8333,"במחירים":8334,"צוגה":8335,"לבנים":8336,"ואשר":8337,"הגעתי":8338,"לרדת":8339,"עליי":8340,"הפיצוי":8341,"קטיביות":8342,"דוגמא":8343,"נשימה":8344,"איילון":8345,"הציבורית":8346,"יחידת":8347,"גזע":8348,"בינלאומי":8349,"age":8350,"שיעורי":8351,"מדרגות":8352,"Авив":8353,"man":8354,"par":8355,"בספרי":8356,"ושונות":8357,"סולא":8358,"עפר":8359,"שף":8360,"היחס":8361,"אישום":8362,"איראן":8363,"חיפוי":8364,"סיור":8365,"גיון":8366,"והכי":8367,"השמאל":8368,"במדינות":8369,"פתחה":8370,"חברתיות":8371,"אמורה":8372,"עובדות":8373,"ידעו":8374,"חלונות":8375,"האלקט":8376,"לקידום":8377,"רשאית":8378,"ight":8379,"בתחרות":8380,"המטופל":8381,"Яффо":8382,"61":8383,"?!":8384,"Ram":8385,"[...]":8386,"בגוגל":8387,"בציבור":8388,"גלעד":8389,"חפר":8390,"לבת":8391,"לכמה":8392,"מברי":8393,"נרות":8394,"נצל":8395,"סדרה":8396,"עפ":8397,"פלג":8398,"קנו":8399,"ביאו":8400,"ובמיוחד":8401,"תיאטרון":8402,"גיי":8403,"מסכי":8404,"החסי":8405,"הסטודנטים":8406,"ואן":8407,"מדור":8408,"בקות":8409,"אליך":8410,"לפעילות":8411,"מלכות":8412,"בצל":8413,"חלקו":8414,"הציוני":8415,"ill":8416,"הנהג":8417,"הדברה":8418,"בקיץ":8419,"סויים":8420,"מפתיע":8421,",\"":8422,"82":8423,"Co":8424,"fa":8425,"ей":8426,"וכש":8427,"ופשוט":8428,"וכיצד":8429,"טורים":8430,"ממוש":8431,"צפה":8432,"שגים":8433,"ניסים":8434,"ולמה":8435,"מוכרים":8436,"בהק":8437,"לחברות":8438,"הנאה":8439,"שאן":8440,"הצפון":8441,"נערות":8442,"במשקל":8443,"יצירות":8444,"נדרשים":8445,"ממליץ":8446,"בבניין":8447,"לעזוב":8448,"73":8449,"ev":8450,"גדים":8451,"כִי":8452,"לחיי":8453,"משלוח":8454,"צג":8455,"״.":8456,"איו":8457,"ובלה":8458,"שואה":8459,"אלטרנטי":8460,"מחלת":8461,"הקל":8462,"הקדוש":8463,"בקבוצה":8464,"הבמה":8465,"המוכר":8466,"פורנו":8467,"שנערך":8468,"בצים":8469,"2019":8470,"נדבות":8471,"ant":8472,"חזקים":8473,"היסטורית":8474,"הניתוח":8475,"ack":8476,"שפיר":8477,"משרדי":8478,"CH":8479,"אמורים":8480,"גנה":8481,"דָם":8482,"חנ":8483,"ענן":8484,"קולו":8485,"תֶּ":8486,"ניצחון":8487,"ולט":8488,"בישול":8489,"ריכת":8490,"שירת":8491,"חידה":8492,"פירו":8493,"התכנון":8494,"האמונה":8495,"בחנה":8496,"ממשלה":8497,"פסולת":8498,"הטור":8499,"נפשי":8500,"נפלא":8501,"חזרו":8502,"ast":8503,"התחבורה":8504,"להחזיק":8505,"הקולנוע":8506,"ес":8507,"זרות":8508,"זמנית":8509,"יעילות":8510,"פלפל":8511,"תֵּ":8512,"המשותף":8513,"אימו":8514,"אימות":8515,"שיצא":8516,"תין":8517,"כירים":8518,"קוע":8519,"מרתק":8520,"גישו":8521,"למטבח":8522,"לעים":8523,"לבנון":8524,"פניות":8525,"הכבוד":8526,"...\"":8527,"הזמנת":8528,"לגני":8529,"בחין":8530,"במשק":8531,"וּלְ":8532,"בּוֹ":8533,"להחליט":8534,"לבחירת":8535,"גבול":8536,"ועצ":8537,"זקת":8538,"טעי":8539,"מפה":8540,"נגי":8541,"ענין":8542,"שרוצה":8543,"מידות":8544,"אלמנטים":8545,"הערות":8546,"במקור":8547,"באורך":8548,"בורת":8549,"בורות":8550,"הבסיס":8551,"ומאו":8552,"הכביש":8553,"אינטי":8554,"פריקה":8555,"ניידים":8556,"המיני":8557,"הסיבות":8558,"מנהלי":8559,"המקדש":8560,"אָמַ":8561,"פתיחה":8562,"בכירה":8563,"לצרכי":8564,"דיסקרטי":8565,"ain":8566,"וגו":8567,"לכות":8568,"אתא":8569,"ובנוסף":8570,"הווי":8571,"בוגר":8572,"חוזרים":8573,"אלבום":8574,"מסד":8575,"דודי":8576,"מחלוקת":8577,"כתבים":8578,"גדלה":8579,"הנשי":8580,"הנדל":8581,"בקצב":8582,"הגענו":8583,"בטל":8584,"בטבע":8585,"סרטי":8586,"העיקרית":8587,"מיוני":8588,"יעזור":8589,"ator":8590,"מעוניין":8591,"עזרו":8592,"למחרת":8593,"מומלצים":8594,"מזונות":8595,"הרפואה":8596,"חולי":8597,"לזמן":8598,"צפת":8599,"קחו":8600,"קמח":8601,"שכולם":8602,"עיין":8603,"עיבוד":8604,"גועים":8605,"למז":8606,"אנאלי":8607,"פורומים":8608,"מורכבת":8609,"השומר":8610,"יעלה":8611,"משתתפים":8612,"רובם":8613,"המסעדה":8614,"אבנים":8615,"בכירים":8616,"פעלת":8617,"עמוקה":8618,"בהרצליה":8619,"Bl":8620,"נפתח":8621,"צֵ":8622,"תלת":8623,"היפה":8624,"חוני":8625,"תומר":8626,"בהליך":8627,"התל":8628,"התור":8629,"פונד":8630,"זוז":8631,"לבתי":8632,"מאלי":8633,"גדעון":8634,"לטה":8635,"הכספים":8636,"בטחת":8637,"להתגבר":8638,"הליכי":8639,"בתוכו":8640,"קציית":8641,"עמידה":8642,"ישיבות":8643,"למסע":8644,"הקרב":8645,")‏":8646,"71":8647,"גדרות":8648,"והרבה":8649,"כט":8650,"לתיקון":8651,"צמחי":8652,"רד":8653,"בייקט":8654,"נופש":8655,"הירוק":8656,"אייר":8657,"מיסוי":8658,"חיזוק":8659,"מתנד":8660,"אלכס":8661,"מצבים":8662,"במלחמת":8663,"פנימית":8664,"נסון":8665,"חתן":8666,"שלווה":8667,"מורשת":8668,"תחנות":8669,"בחירות":8670,"שׁוּ":8671,"קריית":8672,"מוסמך":8673,"מהווים":8674,"השליטה":8675,"הָאָרֶץ":8676,"pro":8677,"ron":8678,"בילי":8679,"מודע":8680,"מובילים":8681,"להקל":8682,"בראיון":8683,"תומכים":8684,"אחים":8685,"העותר":8686,"אשכנ":8687,"אנלי":8688,"נגן":8689,"הדרום":8690,"נקות":8691,"אמֹר":8692,"מסוגלים":8693,"מכוניות":8694,"עיתים":8695,"ניצן":8696,"בינואר":8697,"מכתבים":8698,"אוטומטית":8699,"בכוח":8700,"דלי":8701,"דעו":8702,"הסוף":8703,"יבש":8704,"למשחק":8705,"רהיטים":8706,"וראות":8707,"הישראלים":8708,"ובהת":8709,"חידוש":8710,"תוחים":8711,"שהגיעו":8712,"בהשוואה":8713,"טוֹב":8714,"הספ":8715,"הקבל":8716,"הצליחה":8717,"בדברי":8718,"הדתי":8719,"גורמת":8720,"פשוטים":8721,"החלטתי":8722,"ארוחות":8723,"ובעולם":8724,"חודשי":8725,"מוגבלות":8726,"חיתות":8727,"הטיול":8728,"ההצעה":8729,"הצעירים":8730,"במדינת":8731,"עמותת":8732,"``":8733,"ги":8734,"דשא":8735,"זצ":8736,"חִ":8737,"עמוס":8738,"פלד":8739,"שסי":8740,"שטו":8741,"המדריך":8742,"נודע":8743,"היסוד":8744,"כיות":8745,"קישור":8746,"בעניי":8747,"בתקשורת":8748,"פופ":8749,"מצחיק":8750,"השפה":8751,"כוונת":8752,"מחבר":8753,"הנפ":8754,"עצב":8755,"שקעה":8756,"מנהלים":8757,"ותיים":8758,"תוצרת":8759,"טענת":8760,"אגף":8761,"הפוך":8762,"שחרור":8763,"הבדלים":8764,"דהיינו":8765,"הורה":8766,"לשרת":8767,"לצומת":8768,"לשתף":8769,"מוזר":8770,"מיין":8771,"דיסק":8772,"נהריה":8773,"מתם":8774,"התפקיד":8775,"קרם":8776,"פומבי":8777,"כוד":8778,"העברי":8779,"מחשבות":8780,"לממשלה":8781,"הגב":8782,"המוזיקה":8783,"קטע":8784,"צרכי":8785,"להירשם":8786,"אחראית":8787,"לצפייה":8788,"בחינה":8789,"פרופיל":8790,"המתמחה":8791,"אסד":8792,"צדקה":8793,"להוכיח":8794,"מחוי":8795,"טענו":8796,"פקידו":8797,"מתייחס":8798,"לחודש":8799,"להגדיל":8800,"לֵאמֹר":8801,"ure":8802,"דבורה":8803,"תרי":8804,"שלט":8805,"רוֹ":8806,"המכונה":8807,"המלאה":8808,"ליין":8809,"נועד":8810,"היצר":8811,"היקף":8812,"מייס":8813,"הוסף":8814,"תיהנו":8815,"סיפה":8816,"תומך":8817,"קרנות":8818,"דושה":8819,"פונק":8820,"טרכו":8821,"החזר":8822,"האגו":8823,"השעה":8824,"ואלו":8825,"שאנשים":8826,"ומנו":8827,"בדקו":8828,"בדירה":8829,"יחזק":8830,"מחוז":8831,"סרטון":8832,"המקומי":8833,"אמריקאי":8834,"נתוני":8835,"מפלגת":8836,"MP":8837,"Net":8838,"eb":8839,"אמש":8840,"גמים":8841,"וניתן":8842,"חלום":8843,"צק":8844,"קנים":8845,"קשב":8846,"בילוי":8847,"שלמים":8848,"להשלים":8849,"אויר":8850,"הוקם":8851,"תיב":8852,"עירוני":8853,"קונס":8854,"פרקים":8855,"החלום":8856,"יונתן":8857,"השעות":8858,"העץ":8859,"קטגוריות":8860,"סטון":8861,"מלכה":8862,"שליחות":8863,"האחים":8864,"חזית":8865,"הסופר":8866,"הופכת":8867,"הדואר":8868,"ההצלחה":8869,"צעירה":8870,"ּוֹם":8871,"הקרובים":8872,"הפלסטינים":8873,"בפורום":8874,"דלקת":8875,"עדו":8876,"פם":8877,"צמוד":8878,"שבכל":8879,"….":8880,"הישיבות":8881,"מינית":8882,"ובלות":8883,"סימני":8884,"צינור":8885,"משבר":8886,"ויכול":8887,"קרטית":8888,"הענ":8889,"לעתיד":8890,"הגן":8891,"ספס":8892,"הטרי":8893,"יצאה":8894,"האוניברסיטה":8895,"לויזיה":8896,"התוכן":8897,"קיבלנו":8898,"תלונות":8899,"להשפיע":8900,"תפקידו":8901,"האמריקאית":8902,"89":8903,"by":8904,"ֶן":8905,"בבו":8906,"חזור":8907,"יֵ":8908,"לעם":8909,"קפו":8910,"היכל":8911,"שישה":8912,"טיוב":8913,"ציונה":8914,"קיף":8915,"אלחו":8916,"סופי":8917,"מצום":8918,"יוקרה":8919,"צום":8920,"למאגר":8921,"קטורי":8922,"עליית":8923,"יימס":8924,"צורות":8925,"1948":8926,"פעולת":8927,"לנצל":8928,"קסם":8929,"לעיצוב":8930,"טריים":8931,"נועדו":8932,"נטיות":8933,"המעשה":8934,"ֵּה":8935,"ערוך":8936,"ראיות":8937,"האלבום":8938,"סטודיו":8939,"הביטוי":8940,"הגולן":8941,"OS":8942,"va":8943,"ברון":8944,"בזק":8945,"גלית":8946,"דפי":8947,"למספר":8948,"נבי":8949,"סובלים":8950,"קצה":8951,"תגיות":8952,"ולהע":8953,"היותר":8954,"הידוע":8955,"רישה":8956,"כלב":8957,"חוזרת":8958,"קופ":8959,"קונה":8960,"עוסקת":8961,"גופנית":8962,"לעות":8963,"מקובל":8964,"הגברים":8965,"לרשת":8966,"נסיעות":8967,"הכשרה":8968,"העיתו":8969,"תחליף":8970,"וְאַ":8971,"אנוש":8972,"יהוה":8973,"פרופסור":8974,"המשיבים":8975,"פעלו":8976,"לטייל":8977,"להפחית":8978,"דְּ":8979,"ונראה":8980,"חמור":8981,"מגיל":8982,"נמש":8983,"נצח":8984,"נערך":8985,"פורה":8986,"רתו":8987,"ראינו":8988,"רימון":8989,"שינו":8990,"מופע":8991,"ובהם":8992,"מסעדת":8993,"בתשובה":8994,"סודות":8995,"מצט":8996,"מחול":8997,"בקים":8998,"ומכאן":8999,"סטל":9000,"כבדים":9001,"תקף":9002,"ועדות":9003,"מבוסס":9004,"רָא":9005,"שמחים":9006,"להגדיר":9007,"חתונה":9008,"ממשיכה":9009,"named":9010,"Unnamed":9011,"out":9012,"pe":9013,"דנ":9014,"מהיום":9015,"עקרונות":9016,"רנט":9017,"רדיו":9018,"שעליו":9019,"שלון":9020,"המבקשים":9021,"ליאור":9022,"שישים":9023,"להסיר":9024,"הודו":9025,"חירום":9026,"פינות":9027,"חוויות":9028,"מרגש":9029,"קיצו":9030,"ויל":9031,"נתח":9032,"מצעים":9033,"גרמה":9034,"עצמך":9035,"אפשרית":9036,"בצבא":9037,"בצעת":9038,"ממקום":9039,"הדתית":9040,"השירים":9041,"השידור":9042,"מגה":9043,"ההנה":9044,"לנצח":9045,"המתנה":9046,"וַיֵּ":9047,"באיזה":9048,"הפיתוח":9049,"הכוכבים":9050,"חקירה":9051,"הקטנה":9052,"במרחב":9053,"מוחמד":9054,"76":9055,"האחד":9056,"חבת":9057,"חורה":9058,"חכמה":9059,"כָ":9060,"נדים":9061,"סנט":9062,"שאינן":9063,"‮.":9064,"נוכחות":9065,"איפור":9066,"איטל":9067,"מיץ":9068,"סיטי":9069,"כיכר":9070,"גיב":9071,"גילו":9072,"תופעה":9073,"ויאמר":9074,"דרשו":9075,"התחייבות":9076,"והז":9077,"יוד":9078,"העשרה":9079,"מחשוב":9080,"מאים":9081,"הקלא":9082,"הקשורים":9083,"הזמנים":9084,"שעתיים":9085,"לסגור":9086,"שקד":9087,"הטכני":9088,"הלידה":9089,"בגדר":9090,"עדין":9091,"בפנים":9092,"וייעוץ":9093,"אוכלים":9094,"תרומות":9095,"פרדס":9096,"החברתיות":9097,"הגולשים":9098,"RA":9099,"בדרכים":9100,"דוב":9101,"הקיר":9102,"הכאב":9103,"סמן":9104,"עשרים":9105,"צנו":9106,"נוכחים":9107,"אידי":9108,"שיפה":9109,"מיט":9110,"תינוקות":9111,"מהנה":9112,"פיעו":9113,"ציו":9114,"צילומי":9115,"שהר":9116,"עוֹ":9117,"הסכי":9118,"גדור":9119,"בניסיון":9120,"פסקי":9121,"שמלות":9122,"מאוחד":9123,"השינה":9124,"כננים":9125,"האישום":9126,"הפרט":9127,"דרישות":9128,"הפוט":9129,"עשיתי":9130,"ההסת":9131,"office":9132,"להקמת":9133,"תאונות":9134,"Ash":9135,"ml":9136,"אהוד":9137,"כשת":9138,"צפות":9139,"ניש":9140,"להא":9141,"תוקף":9142,"עוק":9143,"התש":9144,"סופה":9145,"האדרי":9146,"ביתר":9147,"בקבו":9148,"שלושים":9149,"חברתיים":9150,"מכשירים":9151,"שקע":9152,"הציוד":9153,"התינוק":9154,"טעמים":9155,"בתוכנית":9156,"למועד":9157,"בהיקף":9158,"oft":9159,"ובדרום":9160,"וַיְהִי":9161,"חשמליים":9162,"84":9163,"ros":9164,"אמון":9165,"פלות":9166,"שך":9167,"בירת":9168,"היזם":9169,"מיל":9170,"מידת":9171,"בוצע":9172,"עיו":9173,"סיבי":9174,"מתאימים":9175,"פרעות":9176,"ציוני":9177,"תוני":9178,"תוספות":9179,"התעל":9180,"התפילה":9181,"האדום":9182,"לתחום":9183,"יהָ":9184,"הסכמה":9185,"הגבול":9186,"מנורות":9187,"מבקר":9188,"הכיבוש":9189,"בסין":9190,"צעצועים":9191,"הכרמל":9192,"HP":9193,"LA":9194,"בהיר":9195,"וטי":9196,"חברו":9197,"סכנה":9198,"תשנ":9199,"תפריט":9200,"ולפעמים":9201,"לימים":9202,"הידיים":9203,"מונד":9204,"מימוש":9205,"לאזור":9206,"בענף":9207,"יהן":9208,"הקפה":9209,"כאים":9210,"הצבע":9211,"המומחים":9212,"המשק":9213,"בניהול":9214,"בעיניים":9215,"שלישית":9216,"נגמר":9217,"שורש":9218,"אוריה":9219,"ההתי":9220,"בחייו":9221,"נעשית":9222,"מכירת":9223,"בנפרד":9224,"חבילות":9225,"איכותית":9226,"להצליח":9227,"בינוני":9228,"תפילה":9229,"המשתמשים":9230,"תלויה":9231,"ומקצועי":9232,"כשים":9233,"מגד":9234,"עמודים":9235,"תשובות":9236,"הידר":9237,"מומחי":9238,"בוס":9239,"פיסה":9240,"פירוק":9241,"מתקיים":9242,"מסים":9243,"העס":9244,"ישת":9245,"מחצית":9246,"טוא":9247,"הסרטים":9248,"ואלה":9249,"ומז":9250,"ומור":9251,"ההליך":9252,"לנהוג":9253,"בסיום":9254,"פעילה":9255,"לחינוך":9256,"ראיה":9257,"החרדים":9258,"ממליצה":9259,"נוהגים":9260,"הפוטנצי":9261,"-\"":9262,"<#":9263,"Ph":9264,"Tra":9265,"בדם":9266,"בשלום":9267,"וכדי":9268,"וכזב":9269,"טבריה":9270,"כחת":9271,"כדוגמת":9272,"לצו":9273,"צָ":9274,"רבנו":9275,"תשתיות":9276,"ליקו":9277,"שרותי":9278,"עומר":9279,"ויק":9280,"הרגליים":9281,"בלשון":9282,"ארצה":9283,"החתונה":9284,"האפשר":9285,"מחכה":9286,"מחזיק":9287,"במציאות":9288,"הפקת":9289,"בשדה":9290,"מקול":9291,"המשבר":9292,"סטן":9293,"בסדרה":9294,"ידידות":9295,"אמנון":9296,"הנוס":9297,"אריזה":9298,"המסמכים":9299,"טריות":9300,"להגשים":9301,"הסרטון":9302,"המשחקים":9303,"בֵּית":9304,"החורף":9305,"יחזקאל":9306,"IC":9307,"ла":9308,"דורים":9309,"הזר":9310,"חִי":9311,"לגו":9312,"רפי":9313,"רגילה":9314,"שקרה":9315,"תמצי":9316,"שלמות":9317,"המבצע":9318,"נוֹ":9319,"ובעל":9320,"להכרי":9321,"קוין":9322,"אלעזר":9323,"בענין":9324,"הרן":9325,"פוד":9326,"באשקלון":9327,"ערבית":9328,"לשאת":9329,"הכנת":9330,"הכותרת":9331,"שמגיע":9332,"לנוכח":9333,"אורג":9334,"תחנה":9335,"מלאכות":9336,"בִּ":9337,"ולוגיים":9338,"לחוות":9339,"עיתון":9340,"שאלתי":9341,"בקטגוריה":9342,"מנגנון":9343,"derot":9344,"פילוסופיה":9345,"לנסוע":9346,"86":9347,"800":9348,"Bus":9349,"אכל":9350,"הלה":9351,"יפ":9352,"סלו":9353,"סנטר":9354,"ורדים":9355,"רופאים":9356,"הידו":9357,"מוקים":9358,"עוני":9359,"בעמ":9360,"דוּ":9361,"יתרון":9362,"יהלומים":9363,"ואפשר":9364,"בחלל":9365,"בצעים":9366,"טהור":9367,"ודאות":9368,"אֶרֶץ":9369,"קסון":9370,"מנוף":9371,"עסקית":9372,"משיח":9373,"שולח":9374,"לסיים":9375,"עמדות":9376,"להזכיר":9377,"קובץ":9378,"הפוליטי":9379,"du":9380,"בכתבה":9381,"ושות":9382,"יקבל":9383,"לכאן":9384,"מגל":9385,"נחי":9386,"צַ":9387,"רעות":9388,"תהי":9389,"תקין":9390,"ליץ":9391,"מיכלי":9392,"חוי":9393,"כיסוי":9394,"משים":9395,"גירו":9396,"שהח":9397,"שהתר":9398,"פוגע":9399,"החנות":9400,"החקירה":9401,"השות":9402,"העבודות":9403,"מחלי":9404,"הסכום":9405,"נסת":9406,"קטגוריה":9407,"אופציה":9408,"erv":9409,"הטענה":9410,"ניינות":9411,"וכעת":9412,"ענף":9413,"דרוג":9414,"גביית":9415,"כָּל":9416,"טבעיים":9417,"הובלת":9418,"עריכה":9419,"פלוס":9420,"החברתי":9421,"משרדים":9422,"<>":9423,"Sderot":9424,"TH":9425,"האתרים":9426,"הקיימים":9427,"החייל":9428,"פלס":9429,"הישן":9430,"שימש":9431,"מוזיאון":9432,"מירי":9433,"דירוג":9434,"נהדרת":9435,"בונן":9436,"משקיעים":9437,"גיית":9438,"הרצל":9439,"לקבוצה":9440,"כתבת":9441,"עדכן":9442,"בקלי":9443,"הצג":9444,"גרסה":9445,"הכרה":9446,"הטעם":9447,"האוכלוסייה":9448,"בחינוך":9449,"הפרק":9450,"בנצרת":9451,"נחס":9452,"תחומים":9453,"מוגנים":9454,"לעצמה":9455,"עֲשׂ":9456,"ענקית":9457,"הלבן":9458,"לִפְ":9459,"במתחם":9460,"היסטוריים":9461,"מוחלטת":9462,"gle":9463,"אפר":9464,"אדיר":9465,"בדברים":9466,"גּ":9467,"זבים":9468,"נבה":9469,"פַּ":9470,"רכוש":9471,"תמורה":9472,"שלד":9473,"המפורס":9474,"דיור":9475,"אומן":9476,"פינים":9477,"פיקוד":9478,"שהשת":9479,"וירקות":9480,"מעטים":9481,"מצבי":9482,"מצוה":9483,"הנחות":9484,"הנכס":9485,"בקריית":9486,"בעיית":9487,"לנווה":9488,"המתכון":9489,"קייט":9490,"החיבור":9491,"דיונים":9492,"נחלים":9493,"בחודשים":9494,"שכזה":9495,"המקסי":9496,"מבוססת":9497,"המערבית":9498,"דולרים":9499,"כתובות":9500,"קציר":9501,"ציבוריים":9502,"שאלת":9503,"נזקים":9504,"למסור":9505,"לצרכים":9506,"מגוונים":9507,"נחושת":9508,"#>":9509,"MO":9510,"Th":9511,"во":9512,"ההודעה":9513,"ומעלה":9514,"זמות":9515,"לַי":9516,"לניר":9517,"נבחר":9518,"תבניות":9519,"רובו":9520,"רוויח":9521,"המתר":9522,"המזרח":9523,"נובע":9524,"נופים":9525,"ריסוס":9526,"הודות":9527,"בוז":9528,"כלכלה":9529,"חווית":9530,"פרח":9531,"גידו":9532,"מעגל":9533,"מעניינים":9534,"הרכישה":9535,"בחצר":9536,"מלץ":9537,"שעון":9538,"בנוי":9539,"אורז":9540,"חנוכה":9541,"ועץ":9542,"לנכים":9543,"עריכת":9544,"מעורבות":9545,"השתתפו":9546,"ממילא":9547,"בהסכם":9548,"סבלנות":9549,"HT":9550,"do":9551,"де":9552,"ус":9553,"אשל":9554,"בפרס":9555,"דס":9556,"דורה":9557,"קשיים":9558,"תשמ":9559,"מוסיף":9560,"לאותו":9561,"כללות":9562,"סיפורי":9563,"טייל":9564,"קרמיקה":9565,"פוטר":9566,"מצים":9567,"השחור":9568,"בשורה":9569,"מלאי":9570,"השיער":9571,"מבטיח":9572,"הפרדה":9573,"------":9574,"מקומיים":9575,"התייחסות":9576,"ווט":9577,"לוקחים":9578,"ומשם":9579,"הטובות":9580,"זקוק":9581,"אנדרואיד":9582,"83":9583,"Te":9584,"ma":9585,"גרום":9586,"גריה":9587,"זע":9588,"חמות":9589,"לאת":9590,"נץ":9591,"נפט":9592,"נקט":9593,"סאונד":9594,"פאת":9595,"פָּ":9596,"רז":9597,"רשויות":9598,"שתיים":9599,"תכונות":9600,"פיץ":9601,"בערוץ":9602,"התאונה":9603,"השכירות":9604,"יתקיים":9605,"שאסור":9606,"בריכה":9607,"שנעשה":9608,"שעדיין":9609,"השיווק":9610,"פעלה":9611,"תקנה":9612,"בדיל":9613,"ona":9614,"חלף":9615,"הכללית":9616,"2002":9617,"ואילך":9618,"מבוס":9619,"העובד":9620,"הערכות":9621,"בביצוע":9622,"המפגש":9623,"להשיב":9624,"המקורית":9625,"מפרטורה":9626,"Tr":9627,"גוי":9628,"דנט":9629,"הזי":9630,"�׳³":9631,"אודי":9632,"לוס":9633,"מתברר":9634,"גיים":9635,"מסרים":9636,"סוכנות":9637,"מצאת":9638,"מצחי":9639,"גוני":9640,"החולה":9641,"מפק":9642,"עצמכם":9643,"איתך":9644,"תקן":9645,"מזוי":9646,"רחבת":9647,"קריירה":9648,"באוניברסיטה":9649,"עמלות":9650,"מִן":9651,"במובן":9652,"וֹן":9653,"מוגבל":9654,"המאפיה":9655,"יְהוֹ":9656,"עזרא":9657,"ction":9658,"שיכולים":9659,"הפורום":9660,"בֶן":9661,"סלבס":9662,"iy":9663,"ма":9664,"ос":9665,"גברי":9666,"דבש":9667,"ושירות":9668,"וזהו":9669,"חמאס":9670,"יעילה":9671,"נאית":9672,"פגישה":9673,"קפ":9674,"המבחן":9675,"לוואי":9676,"סימנים":9677,"חוג":9678,"שווים":9679,"קיס":9680,"גינים":9681,"מעבדה":9682,"התנ":9683,"התברר":9684,"התמחות":9685,"בתחילה":9686,"דהים":9687,"מצויי":9688,"החלל":9689,"הבכיר":9690,"הגאון":9691,"ספצי":9692,"אנט":9693,"סטטי":9694,"פותח":9695,"מסוכן":9696,"פעילים":9697,"המסורת":9698,"הפופול":9699,"יְהוּ":9700,"ראייה":9701,"נמצאו":9702,"הזדמנויות":9703,"העולמית":9704,"העלייה":9705,"bo":9706,"אורה":9707,"בבעלות":9708,"דובר":9709,"ההשקעות":9710,"כפתור":9711,"לצור":9712,"נמי":9713,"קשו":9714,"שעוד":9715,"שטיין":9716,"תזו":9717,"״,":9718,"לילד":9719,"נונים":9720,"מוכרת":9721,"מובילה":9722,"מודעים":9723,"ובפרט":9724,"הוֹ":9725,"לונדון":9726,"עיסוי":9727,"מרחוק":9728,"ציק":9729,"האמנות":9730,"למניעת":9731,"לענין":9732,"לחזק":9733,"מדברי":9734,"הגנת":9735,"וליים":9736,"יכולתי":9737,"אחריה":9738,"כלוסיה":9739,"לדחות":9740,"עבורם":9741,"מציגה":9742,"המתאימה":9743,"אריק":9744,"חברון":9745,"ֵיכֶם":9746,"עמדת":9747,"נפתלי":9748,"באורח":9749,"CI":9750,"באת":9751,"באותם":9752,"ההלכה":9753,"חזה":9754,"ינג":9755,"כפרי":9756,"לטובה":9757,"קהילה":9758,"רך":9759,"ניע":9760,"ולין":9761,"ולמרות":9762,"לימון":9763,"ריצה":9764,"ובתי":9765,"אומנם":9766,"טינג":9767,"מתחילת":9768,"מרצה":9769,"צין":9770,"משטחים":9771,"משכנתא":9772,"אחורי":9773,"מעקב":9774,"מצלמה":9775,"מצליחה":9776,"האול":9777,"כונית":9778,"למנות":9779,"דעתה":9780,"ערכות":9781,"כותבת":9782,"כדין":9783,"מנחה":9784,"הדלקת":9785,"השוואה":9786,"מולטי":9787,"מסודר":9788,"הפייסבוק":9789,"יציאה":9790,"תכניות":9791,"מביאה":9792,"רכישה":9793,"לברך":9794,"פלסטינים":9795,"פורסמו":9796,"Beit":9797,"נליין":9798,"וִד":9799,"AP":9800,"SI":9801,"אדה":9802,"בגרמניה":9803,"דך":9804,"וצריך":9805,"חקיר":9806,"כסו":9807,"צמה":9808,"שהייתי":9809,"תשי":9810,"ניף":9811,"ניץ":9812,"ביאה":9813,"המפעל":9814,"להורים":9815,"אוש":9816,"הוחלט":9817,"הוציא":9818,"לאשר":9819,"נהנים":9820,"גירה":9821,"גיבור":9822,"אלכוהול":9823,"דוֹ":9824,"לתביעות":9825,"לתכנן":9826,"לממש":9827,"הפגיעה":9828,"בחברות":9829,"צרפתית":9830,"מורכבים":9831,"הלכות":9832,"התקציב":9833,"תעשייה":9834,"באוקטובר":9835,"בכדור":9836,"שריר":9837,"לייזר":9838,"עשיית":9839,"סטרליה":9840,"בעונה":9841,"חשיפה":9842,"יסודי":9843,"ake":9844,"ult":9845,"ידועה":9846,"ידועים":9847,"תפקידים":9848,"רנטגן":9849,"Ad":9850,"ian":9851,"אכס":9852,"גשו":9853,"ומאז":9854,"טורי":9855,"טלית":9856,"כעבור":9857,"קסו":9858,"ראות":9859,"רֹן":9860,"שבש":9861,"שנס":9862,"המרק":9863,"נוג":9864,"היין":9865,"רינה":9866,"ריכוז":9867,"ובדים":9868,"דיכאון":9869,"פיעות":9870,"פיקס":9871,"פיזית":9872,"ציאים":9873,"משטח":9874,"מעניינת":9875,"התקיים":9876,"סווי":9877,"העמותה":9878,"במות":9879,"לתפוס":9880,"הספרי":9881,"בשאלה":9882,"הבעלים":9883,"המוני":9884,"בריאה":9885,"אינך":9886,"הדמות":9887,"מודדים":9888,"פולו":9889,"קורסים":9890,"אֶחָ":9891,"צלמה":9892,"מלאות":9893,"פקידים":9894,"נועדה":9895,"מסיבה":9896,"לגיטי":9897,"אלקטרוניקה":9898,"מנהיג":9899,"כֹּה":9900,"':":9901,"ארון":9902,"בץ":9903,"דִי":9904,"זמינות":9905,"טוי":9906,"כהו":9907,"מִּ":9908,"שרוצים":9909,"רוחת":9910,"המית":9911,"הממוצע":9912,"אייה":9913,"שיקום":9914,"כללים":9915,"קיעה":9916,"עונים":9917,"מעקות":9918,"בתאריך":9919,"השבי":9920,"כוּ":9921,"לקחו":9922,"במלחמה":9923,"למכ":9924,"למשו":9925,"לעסק":9926,"הסעות":9927,"הקבלה":9928,"הקבוצות":9929,"ערן":9930,"הצב":9931,"המוקד":9932,"פורש":9933,"כבלי":9934,"שנקרא":9935,"מורט":9936,"מורכבות":9937,"בדצמבר":9938,"השינויים":9939,"בדיון":9940,"יצג":9941,"וְהַ":9942,"רבנים":9943,"בלינים":9944,"מריקה":9945,"הדרכים":9946,"ושאר":9947,"מרוצים":9948,"אמיר":9949,"הסוצי":9950,"מכונה":9951,"קצין":9952,"אצלו":9953,"נָיו":9954,"יסודות":9955,"ירוקה":9956,"יזמות":9957,"ברשתות":9958,"חשבונות":9959,"ный":9960,"oogle":9961,"הקריאה":9962,"שוטף":9963,"חפץ":9964,"באפשרותך":9965,"הדיגיטלי":9966,"\"?":9967,"port":9968,"אבה":9969,"אחוזים":9970,"במסלול":9971,"דִּ":9972,"הפה":9973,"ירון":9974,"לאית":9975,"נכם":9976,"שעושה":9977,"שטיי":9978,"הממוק":9979,"אידים":9980,"מימי":9981,"מימד":9982,"קיפה":9983,"משולב":9984,"עונש":9985,"וייס":9986,"התפר":9987,"התחילו":9988,"הרשימה":9989,"סודי":9990,"ניתנים":9991,"רתם":9992,"לבנה":9993,"מאלו":9994,"הנפו":9995,"הנחיות":9996,"בשפלה":9997,"הבעיות":9998,"המוביל":9999,"פורת":10000,"לטון":10001,"שמאי":10002,"בנובמבר":10003,"לצדק":10004,"דורון":10005,"בדין":10006,"ספרד":10007,"הריים":10008,"יראה":10009,"ראק":10010,"טריונים":10011,"בכלא":10012,"וֹת":10013,"ווך":10014,"במחלקת":10015,"הנהלת":10016,"דוקא":10017,"טבעון":10018,"מסויים":10019,"בטחון":10020,"מטבחים":10021,"השחקן":10022,"מיידית":10023,"Jaf":10024,"min":10025,"בכנסת":10026,"נמשך":10027,"צמיחה":10028,"ביצע":10029,"איסוף":10030,"שיתי":10031,"להבחין":10032,"לונן":10033,"מהצד":10034,"גישת":10035,"עוגות":10036,"פופול":10037,"השחר":10038,"העסקי":10039,"אהב":10040,"לערב":10041,"לבניה":10042,"הנדרש":10043,"פנימה":10044,"הצהריים":10045,"בצק":10046,"בטור":10047,"צריכת":10048,"שעברו":10049,"עבורו":10050,"בגרות":10051,"end":10052,"אֲדֹ":10053,"חסן":10054,"באוויר":10055,"עמדו":10056,"שרירים":10057,"מעורר":10058,"ide":10059,"ова":10060,"פתוחה":10061,"Jaffa":10062,"lic":10063,"אבד":10064,"דתיים":10065,"החיי":10066,"ושני":10067,"וציוד":10068,"כרית":10069,"לשאלה":10070,"לפתע":10071,"נֵּה":10072,"עמודי":10073,"׳™":10074,"ולעיתים":10075,"רוחב":10076,"המנו":10077,"הילות":10078,"אוצר":10079,"לאש":10080,"סימפ":10081,"כיתה":10082,"ויטר":10083,"דרכם":10084,"קרתי":10085,"ארצי":10086,"למטרות":10087,"הסלול":10088,"הסתיי":10089,"מקסים":10090,"הגמר":10091,"הצגת":10092,"בטכנ":10093,"להתעלם":10094,"אורגני":10095,"הביקור":10096,"הליגה":10097,"כדורים":10098,"הרווח":10099,"הרווחה":10100,"קציב":10101,"נאמן":10102,"ובלתי":10103,"החרדי":10104,"להסתכל":10105,"פורסמה":10106,"אפליקציות":10107,"la":10108,"במתן":10109,"גזית":10110,"דמת":10111,"כאו":10112,"כשרים":10113,"נאו":10114,"סנה":10115,"ביוני":10116,"ליאת":10117,"ריבית":10118,"עירו":10119,"סיקים":10120,"אחרונות":10121,"מעניק":10122,"קראת":10123,"הערים":10124,"לקול":10125,"ניתנת":10126,"לחשוף":10127,"בשקט":10128,"חשד":10129,"קטעים":10130,"שעשה":10131,"אורות":10132,"ההול":10133,"2001":10134,"במידע":10135,"להופיע":10136,"אֲנִי":10137,"התייחס":10138,"טרינג":10139,"אגרה":10140,"שֶׂ":10141,"ref":10142,"הערבית":10143,"ישיבת":10144,"נזכר":10145,"לטיול":10146,"נכנסים":10147,"נהיג":10148,"רווחים":10149,"המחשבה":10150,"פרוייקט":10151,"'-":10152,"87":10153,"IL":10154,"Pr":10155,"בבלו":10156,"בספטמבר":10157,"ואומר":10158,"כלא":10159,"למשפחה":10160,"צקי":10161,"קאר":10162,"קשרי":10163,"רַיִם":10164,"בינינו":10165,"המוב":10166,"איני":10167,"מישה":10168,"ובבים":10169,"קופס":10170,"ציאו":10171,"תושב":10172,"התרח":10173,"בתכנית":10174,"בתמונות":10175,"הענק":10176,"לקל":10177,"טוענת":10178,"באב":10179,"הקים":10180,"מדהימים":10181,"חקת":10182,"ומט":10183,"ומתי":10184,"עצמן":10185,"אפקט":10186,"בעיתון":10187,"לצבא":10188,"הבינו":10189,"דורשת":10190,"בסיפור":10191,"נחלויות":10192,"אינטרס":10193,"נוסע":10194,"יוצאי":10195,"קטיביים":10196,"צביע":10197,"כביכול":10198,"יחידה":10199,"תיירים":10200,"ניצני":10201,"מעורב":10202,"חיובית":10203,"הודיעה":10204,"הפוליטית":10205,"הֲרֹן":10206,"אסת":10207,"ההשקעה":10208,"וִי":10209,"חֶ":10210,"טרום":10211,"יחו":10212,"כפות":10213,"לדורות":10214,"עט":10215,"וררים":10216,"ולתת":10217,"ביניהן":10218,"המחבר":10219,"מוכה":10220,"עירים":10221,"כילה":10222,"משפיע":10223,"עונות":10224,"בלחץ":10225,"והד":10226,"נתקל":10227,"סופית":10228,"האשה":10229,"מחברי":10230,"לתכנון":10231,"באג":10232,"לבט":10233,"הנשמה":10234,"מקל":10235,"מפעיל":10236,"וריכוז":10237,"לשכנע":10238,"המשורר":10239,"ידיעה":10240,"תרמי":10241,"פעמי":10242,"לכלל":10243,"הפרשה":10244,"קולטה":10245,"קבלני":10246,"הוריו":10247,"בכיתה":10248,"ולדמורט":10249,"לגייס":10250,"גרוע":10251,"נחשבת":10252,"קלאסי":10253,"חפצים":10254,"הצטרפו":10255,"סגירת":10256,"ישעיהו":10257,"ts":10258,"uck":10259,"ир":10260,"אנס":10261,"באתי":10262,"כשמ":10263,"כָה":10264,"לצוות":10265,"לרוץ":10266,"נכונות":10267,"עציר":10268,"שעד":10269,"המסת":10270,"אתן":10271,"מירב":10272,"ובעלי":10273,"דיקים":10274,"ברגל":10275,"תיקים":10276,"סינג":10277,"משאבי":10278,"בעבור":10279,"והה":10280,"ארח":10281,"האפלי":10282,"השער":10283,"טופ":10284,"לתמוך":10285,"בשרון":10286,"בטקס":10287,"הביאה":10288,"לנקוט":10289,"בלונדון":10290,"אגרות":10291,"אֵלָיו":10292,"אמינות":10293,"פרסמים":10294,"שולחנות":10295,"פתיע":10296,"הערך":10297,"הכוחות":10298,"בטווח":10299,"היצירה":10300,"זרעאל":10301,"לעזאזל":10302,"המכונית":10303,"MA":10304,"RS":10305,"ופיתוח":10306,"למשפחות":10307,"מאירוח":10308,"נמכ":10309,"נטיים":10310,"סולי":10311,"פקה":10312,"ובכן":10313,"אונליין":10314,"לאחים":10315,"נהנה":10316,"שראה":10317,"והשת":10318,"דודים":10319,"בתנו":10320,"צופה":10321,"למנט":10322,"מאלית":10323,"שאדם":10324,"מפגשים":10325,"עצמאית":10326,"נגליה":10327,"בטכני":10328,"מבול":10329,"ההלי":10330,"כלונס":10331,"הארדקור":10332,"נשמח":10333,"מלאכי":10334,"להוות":10335,"ותיק":10336,"ite":10337,"מסיבת":10338,"לעומק":10339,"סיפורו":10340,"לעצמם":10341,"פשיטת":10342,"ההשפעה":10343,"יַעֲ":10344,"המקצועית":10345,"הדמויות":10346,"לשלוט":10347,"Of":10348,"les":10349,"ללה":10350,"פחם":10351,"רטי":10352,"שביל":10353,"תשל":10354,"המהפכה":10355,"ליהודים":10356,"שואלים":10357,"כיבוש":10358,"טירת":10359,"קיומו":10360,"משמשת":10361,"אלפים":10362,"דוף":10363,"יועץ":10364,"לתרום":10365,"למטרה":10366,"גדת":10367,"המשטר":10368,"גרתו":10369,"נטלי":10370,"בסדרת":10371,"מכרי":10372,"לצערי":10373,"era":10374,"הייטק":10375,"תעשה":10376,"העוסק":10377,"הסופי":10378,"הסוגים":10379,"למדתי":10380,"חריף":10381,"מצוינת":10382,"רציני":10383,"עקרון":10384,"מעריב":10385,"נישואין":10386,"ולעשות":10387,"תֶּם":10388,"81":10389,"Me":10390,"אפרת":10391,"בבסיס":10392,"גמה":10393,"הלחץ":10394,"הזיכרון":10395,"חֵ":10396,"חדה":10397,"ילים":10398,"יקרים":10399,"לשתות":10400,"סליחה":10401,"צמחים":10402,"שחשוב":10403,"ביניים":10404,"המפורסם":10405,"המנוחה":10406,"לירי":10407,"איזון":10408,"אידיא":10409,"אונות":10410,"הוספת":10411,"הוקמה":10412,"חיטה":10413,"שרדים":10414,"פיפות":10415,"סיכונים":10416,"מתקן":10417,"משטרה":10418,"שהצי":10419,"מסלולי":10420,"הרס":10421,"טראומה":10422,"כוכית":10423,"למסי":10424,"יהב":10425,"הנפט":10426,"מחיצות":10427,"הבנקים":10428,"נגריה":10429,"ולוג":10430,"משתלם":10431,"באיזור":10432,"הייתם":10433,"התקנות":10434,"הלוואה":10435,"לעצמכם":10436,"להקפיד":10437,"כדורסל":10438,"שיעורים":10439,"בימינו":10440,"ews":10441,"!)":10442,"Air":10443,"Dere":10444,"ous":10445,"кт":10446,"והיום":10447,"פנק":10448,"רמב":10449,"בישיבה":10450,"המכתב":10451,"המכרז":10452,"הירים":10453,"היישוב":10454,"אומץ":10455,"ברנר":10456,"הומור":10457,"לומד":10458,"מתוח":10459,"משטחי":10460,"תוכנות":10461,"טרקציות":10462,"החלב":10463,"הארוך":10464,"כוחו":10465,"לתא":10466,"הנדון":10467,"מפריה":10468,"נסייה":10469,"שנקבע":10470,"בסכום":10471,"היועץ":10472,"השיירה":10473,"הביאו":10474,"ההפר":10475,"יערים":10476,"אלוף":10477,"רבקה":10478,"בפניכם":10479,"לויים":10480,"ork":10481,"ארוכים":10482,"התואר":10483,"פרסמה":10484,"בקרת":10485,"ניברסיטאות":10486,"תרומה":10487,"עסקאות":10488,"באללה":10489,"הרחבה":10490,"התרופות":10491,"התיירות":10492,"מרחבים":10493,"DI":10494,"SP":10495,"אָה":10496,"אהרן":10497,"בגו":10498,"בָה":10499,"בפסק":10500,"בפרויקט":10501,"גובות":10502,"למשתמש":10503,"לטווח":10504,"מכלל":10505,"נהו":10506,"סגל":10507,"סורי":10508,"סמל":10509,"שאחרי":10510,"שחלק":10511,"שכדאי":10512,"תִ":10513,"תמונת":10514,"ולהיות":10515,"המעור":10516,"הישר":10517,"ברז":10518,"לאסוף":10519,"עינת":10520,"חוקית":10521,"קוֹ":10522,"קוזי":10523,"פרשנות":10524,"אחרון":10525,"דרמה":10526,"החשבון":10527,"כוני":10528,"לקים":10529,"הקלה":10530,"מקביל":10531,"שותפות":10532,"הבניה":10533,"אליי":10534,"אינץ":10535,"להתחבר":10536,"דורת":10537,"מושבה":10538,"תקלה":10539,"נייט":10540,"אנושי":10541,"בחינת":10542,"125":10543,"כנסות":10544,"העומד":10545,"חביב":10546,"לסיום":10547,"מבינה":10548,"עשירה":10549,"הצדקה":10550,"הוגשה":10551,"התחתון":10552,"Eng":10553,"Google":10554,"li":10555,"ַר":10556,"במערכות":10557,"גשות":10558,"יֹ":10559,"עִם":10560,"קִ":10561,"תאים":10562,"ותק":10563,"ביאים":10564,"רועי":10565,"לייה":10566,"ריו":10567,"מוכנה":10568,"נהלי":10569,"תיבות":10570,"פיקה":10571,"מתרח":10572,"פרנס":10573,"בעמק":10574,"מעץ":10575,"ארט":10576,"יומי":10577,"יושבים":10578,"צוא":10579,"לתל":10580,"מקורי":10581,"בקבוק":10582,"ברירה":10583,"עצרו":10584,"להתקשר":10585,"אביגדור":10586,"בתיה":10587,"חזקות":10588,"המשיכה":10589,"בֵּ":10590,"מצויין":10591,"העתירה":10592,"דמותו":10593,"דאגה":10594,"בבחירות":10595,"https":10596,"ולפיכך":10597,"שתתפות":10598,"הַזֶּה":10599,"יְהוּדָה":10600,"GE":10601,"dr":10602,"mic":10603,"אע":10604,"גַ":10605,"גמ":10606,"חמורה":10607,"ממוצע":10608,"רשום":10609,"רגלי":10610,"המכון":10611,"ריט":10612,"להפיק":10613,"הודעת":10614,"נהגו":10615,"מרט":10616,"ציעות":10617,"אלעד":10618,"בעזה":10619,"התעשייה":10620,"דהות":10621,"שתמיד":10622,"מאסטר":10623,"השוטרים":10624,"לצבו":10625,"ַיִ":10626,"האווירה":10627,"מתוקים":10628,"בגליל":10629,"שהוצ":10630,"קייטרינג":10631,"נשמה":10632,"בלום":10633,"זכרת":10634,"התיק":10635,"חסרי":10636,"בכביש":10637,"התופעה":10638,"דרושים":10639,"השלכות":10640,"בפרשת":10641,"צפויה":10642,"אגודת":10643,"הרגשה":10644,"אבטחת":10645,"להורדה":10646,"האירופי":10647,"מדויק":10648,"לִפְנֵי":10649,"CT":10650,"¢׳³":10651,"ואחת":10652,"ושומרון":10653,"זולים":10654,"זמנו":10655,"זֶה":10656,"יקבלו":10657,"עָה":10658,"צון":10659,"ששת":10660,"שעת":10661,"ניתי":10662,"רובה":10663,"שיחת":10664,"אונו":10665,"שהדבר":10666,"בעור":10667,"דומות":10668,"העבירה":10669,"ישם":10670,"אפים":10671,"הזמנות":10672,"לגשת":10673,"לגברים":10674,"מגור":10675,"האויב":10676,"בסיכון":10677,"נחמיה":10678,"המשימה":10679,"דרין":10680,"חלומות":10681,"למסקנה":10682,"במרץ":10683,"חַת":10684,"רפואיות":10685,"שיפוצים":10686,"הַמִּ":10687,"שִׁים":10688,"שלפניכם":10689,"להדגיש":10690,"המועדון":10691,"מחייבת":10692,"ניסיתי":10693,"BB":10694,"ля":10695,"וחברות":10696,"חקר":10697,"כפולה":10698,"לדין":10699,"מאותו":10700,"סאל":10701,"צִי":10702,"ניל":10703,"איום":10704,"להורות":10705,"פירוש":10706,"עירונית":10707,"מרהי":10708,"שהול":10709,"אללה":10710,"אחות":10711,"נתפס":10712,"השב":10713,"העולה":10714,"עדויות":10715,"הקבו":10716,"כרגיל":10717,"אנד":10718,"עתים":10719,"שנר":10720,"נגטון":10721,"לפניו":10722,"הלכת":10723,"קילומטרים":10724,"arm":10725,"הסיפורים":10726,"חזות":10727,"עוברת":10728,"אסתר":10729,"אריכים":10730,"משימה":10731,"אַל":10732,"אַרְ":10733,"להרחיב":10734,"במחלוקת":10735,"ורטס":10736,"read":10737,"הערעור":10738,"לקרות":10739,"חיוך":10740,"זיכרונות":10741,"בבחינת":10742,"אדיב":10743,"ויטמין":10744,"פרידמן":10745,":\"":10746,"we":10747,"בבל":10748,"והמש":10749,"זקות":10750,"טף":10751,"ילי":10752,"יהא":10753,"מטיים":10754,"נשר":10755,"עפולה":10756,"פטו":10757,"קצרים":10758,"ניקוז":10759,"בייל":10760,"שילד":10761,"מוניות":10762,"תיקוני":10763,"שראיתי":10764,"כלבים":10765,"טיחות":10766,"קיקה":10767,"עוסקים":10768,"הרפת":10769,"פוז":10770,"פוסי":10771,"גוורטס":10772,"השעון":10773,"לתחו":10774,"לתקשורת":10775,"באזורים":10776,"לחקור":10777,"לבאר":10778,"הנור":10779,"חקים":10780,"בריאים":10781,"לטעון":10782,"...)":10783,"לסון":10784,"למידע":10785,"הלכתי":10786,"אמנה":10787,"מגזין":10788,"תקצי":10789,"תקנון":10790,"גורן":10791,"ניירות":10792,"הארצי":10793,"הכירו":10794,"ֵינוּ":10795,"קשורה":10796,"הקיבוץ":10797,"מביאים":10798,"נדיר":10799,"גבינה":10800,"מערבבים":10801,"תלונה":10802,"דיסקרטית":10803,"הפלסטינית":10804,"שקראתי":10805,"הצופים":10806,"מתקדמת":10807,"העיקריים":10808,"היתרונות":10809,"המודרני":10810,"rosoft":10811,"110":10812,"ex":10813,"ההוא":10814,"חרו":10815,"יורו":10816,"כשו":10817,"כניים":10818,"לשלום":10819,"נבנה":10820,"תול":10821,"ביס":10822,"ביכולת":10823,"רומן":10824,"המעי":10825,"המצלמה":10826,"ליית":10827,"הוס":10828,"עישון":10829,"חוצה":10830,"מרגע":10831,"צילומים":10832,"התכו":10833,"ארבעת":10834,"בתולדות":10835,"פוג":10836,"סוקר":10837,"מדברת":10838,"לרא":10839,"פסל":10840,"שמלת":10841,"לסביבה":10842,"שורות":10843,"לפניכם":10844,"לצלם":10845,"פריל":10846,"משפטיים":10847,"כניסת":10848,"הפיזי":10849,"ֶּלֶךְ":10850,"כבישים":10851,"זיתים":10852,"ימינו":10853,"und":10854,"מטוסים":10855,"האמיתית":10856,"האנושות":10857,"בשבילכם":10858,"מוקדמת":10859,"פיצויים":10860,"הצעירה":10861,"האפשרויות":10862,"מארטפון":10863,"AD":10864,"ID":10865,"OW":10866,"ns":10867,"בספרו":10868,"גַּ":10869,"ההזדמנות":10870,"וכד":10871,"כשרה":10872,"לצה":10873,"נכס":10874,"נאביס":10875,"עגול":10876,"רר":10877,"רמז":10878,"שמטר":10879,"שזהו":10880,"ורץ":10881,"ולהש":10882,"שלבים":10883,"מונו":10884,"ובתו":10885,"אוף":10886,"לוגי":10887,"תיקי":10888,"בועיים":10889,"חוקה":10890,"חוקרים":10891,"כינו":10892,"צימר":10893,"בהדרגה":10894,"זהרה":10895,"יוּ":10896,"לתם":10897,"לתשלום":10898,"למכללת":10899,"לעור":10900,"לחגוג":10901,"לבות":10902,"עדכון":10903,"הקד":10904,"בחה":10905,"לשחרר":10906,"הצפוי":10907,"שנתי":10908,"בדקה":10909,"תרצו":10910,"לצת":10911,"שקשה":10912,"לדרוש":10913,"החיות":10914,"אסון":10915,"בסיסי":10916,"במשטרה":10917,"צעדים":10918,"הרבנים":10919,"טריון":10920,"item":10921,"לחימה":10922,"מלוא":10923,"כתיב":10924,"תשס":10925,"במעמד":10926,"אנגליה":10927,"אובמה":10928,"אוּל":10929,"LED":10930,"קהילות":10931,"נזיקין":10932,"להוראות":10933,"____":10934,"ET":10935,"Ts":10936,"iel":10937,"sp":10938,"ди":10939,"ро":10940,"הכהן":10941,"וגר":10942,"וטיפול":10943,"זהירות":10944,"חֹ":10945,"ירק":10946,"משלב":10947,"נבון":10948,"סנ":10949,"צאות":10950,"קִי":10951,"רלס":10952,"ביולי":10953,"בידיים":10954,"המסר":10955,"המכירה":10956,"מופר":10957,"להטיל":10958,"הוביל":10959,"חישוב":10960,"סיפו":10961,"שהע":10962,"הרגיל":10963,"האק":10964,"האצבע":10965,"במחוז":10966,"טודיו":10967,"בארוד":10968,"ואור":10969,"זיציה":10970,"קטורה":10971,"לטת":10972,"להילחם":10973,"הכספי":10974,"שליח":10975,"מנגד":10976,"השווי":10977,"השילוב":10978,"אנוני":10979,"מציין":10980,"באייר":10981,"אינטרסים":10982,"מניעת":10983,"תעשיית":10984,"התוכנה":10985,"בפולי":10986,"במחקר":10987,"עננה":10988,"טכנאי":10989,"העצמי":10990,"חסידים":10991,"הקרובות":10992,"הנדסת":10993,"משקאות":10994,"האנושית":10995,"נאלץ":10996,"טיבציה":10997,"מיקרוסופט":10998,"קולינ":10999,"הקפיטלי":11000,"הְי":11001,"700":11002,"col":11003,"בכניסה":11004,"השלושה":11005,"ואינם":11006,"טש":11007,"לשיר":11008,"לדירה":11009,"משרה":11010,"פְּ":11011,"קבעה":11012,"שרוב":11013,"‬‫":11014,"ביצועים":11015,"מוסר":11016,"מיקו":11017,"ברקת":11018,"הופיע":11019,"מהותי":11020,"משכ":11021,"תומים":11022,"שהכל":11023,"שהביא":11024,"הרשמה":11025,"והנ":11026,"בתמונה":11027,"נתבע":11028,"החלי":11029,"למלחמה":11030,"גלבוע":11031,"ואנשי":11032,"הגג":11033,"לשדה":11034,"לשקול":11035,"להיעזר":11036,"בטענה":11037,"מנצח":11038,"אופקים":11039,"געתי":11040,"ההכר":11041,"גורמי":11042,"הדירוג":11043,"הדיירים":11044,"לנהיגה":11045,"חלקית":11046,"בחומרים":11047,"שביעית":11048,"ניצול":11049,"אזרחות":11050,"הנושאים":11051,"פקודת":11052,"ент":11053,"ראשוני":11054,"מתכוון":11055,"ifa":11056,"רווחה":11057,"חטיבת":11058,"ey":11059,"mer":11060,"си":11061,"אסט":11062,"דגן":11063,"הבתים":11064,"ינ":11065,"ממים":11066,"צמד":11067,"שֻ":11068,"שאומר":11069,"שמאפשר":11070,"ורע":11071,"ביז":11072,"ובקרה":11073,"לוש":11074,"מהסוג":11075,"קוביץ":11076,"מרכיבים":11077,"עונת":11078,"התלמיד":11079,"קרע":11080,"הרצח":11081,"מצעי":11082,"גוס":11083,"העדר":11084,"מחמת":11085,"מחברת":11086,"זווית":11087,"הסכמת":11088,"הנכסים":11089,"פנייה":11090,"הבעל":11091,"נטה":11092,"נגדים":11093,"תקלות":11094,"האישיים":11095,"ang":11096,"טלפונים":11097,"לאומיות":11098,"במידת":11099,"בשיחה":11100,"התיקון":11101,"שמירת":11102,"בולת":11103,"אֵין":11104,"אַחֲ":11105,"לָם":11106,"קרקעות":11107,"הלוואות":11108,"urn":11109,"לתואר":11110,"אולמות":11111,"חסין":11112,"סניף":11113,"מודרני":11114,"הנדרשים":11115,"cr":11116,"ем":11117,"דגל":11118,"השלב":11119,"טפט":11120,"יצור":11121,"יפות":11122,"כפ":11123,"כתית":11124,"לבל":11125,"מפוס":11126,"צט":11127,"שעומד":11128,"ניחו":11129,"המאר":11130,"מישראל":11131,"חידות":11132,"בוצים":11133,"פידה":11134,"סירות":11135,"שוטרים":11136,"טיבה":11137,"מרפא":11138,"התמודדות":11139,"מסורת":11140,"הרגיש":11141,"מצת":11142,"גונן":11143,"מחת":11144,"יתִי":11145,"למקומות":11146,"לחכות":11147,"לבעיות":11148,"זינו":11149,"הבצק":11150,"הצטרף":11151,"ומג":11152,"עלילה":11153,"יישום":11154,"השוכר":11155,"השיחה":11156,"לפיו":11157,"מכויות":11158,"הזהות":11159,"הסינית":11160,"החינו":11161,"הכיפורים":11162,"esh":11163,"מקומיות":11164,"שמיר":11165,"שמיות":11166,"זקן":11167,"קבועה":11168,"מכוח":11169,"להשתנות":11170,"מצוקה":11171,"תִּי":11172,"רפואיים":11173,"דגמים":11174,"הצרכים":11175,"להתייעץ":11176,"משאבים":11177,"ולראות":11178,"האזרחים":11179,"אָמַר":11180,"au":11181,"mm":11182,"wit":11183,"али":11184,"אספר":11185,"בנט":11186,"גא":11187,"וניים":11188,"חאי":11189,"טלט":11190,"יזרעאל":11191,"לקום":11192,"לחייב":11193,"מָּ":11194,"נכים":11195,"סחר":11196,"עשרת":11197,"ביממה":11198,"הימות":11199,"מוטי":11200,"מופיעה":11201,"מיזם":11202,"להשוות":11203,"לוף":11204,"כידוע":11205,"ציאת":11206,"גיבוי":11207,"נתר":11208,"מצבו":11209,"כוכבי":11210,"העלילה":11211,"הנביא":11212,"הנשימה":11213,"מקס":11214,"הבשר":11215,"אשמח":11216,"גרמנית":11217,"יעבור":11218,"הפרה":11219,"זכריה":11220,"בנקים":11221,"ord":11222,"המחאה":11223,"שריד":11224,"מוגדר":11225,"תנועות":11226,"שנוצר":11227,"חבריו":11228,"נחשבים":11229,"תשתית":11230,"מנהיגות":11231,"לָהֶם":11232,"בהרצאה":11233,"משפחתית":11234,"המזרחי":11235,"from":11236,"אלחוטי":11237,"הספרייה":11238,"900":11239,"ax":11240,"ek":11241,"ру":11242,"ינאי":11243,"יפן":11244,"כִּ":11245,"מתית":11246,"מָּה":11247,"עצר":11248,"עכבר":11249,"צני":11250,"קנדי":11251,"קביעת":11252,"שעי":11253,"שלת":11254,"רונן":11255,"ובץ":11256,"דיג":11257,"דיבור":11258,"לאלי":11259,"לאנשי":11260,"לאמץ":11261,"שומרים":11262,"צירות":11263,"תוי":11264,"עומק":11265,"עוגיות":11266,"בהלי":11267,"בעם":11268,"והא":11269,"פונית":11270,"העדי":11271,"מחד":11272,"שתן":11273,"ניתנה":11274,"לעורר":11275,"הפסקה":11276,"מותג":11277,"בקורס":11278,"כותבים":11279,"חרב":11280,"בריכת":11281,"הכרו":11282,"אינדי":11283,"אביזרי":11284,"אופציות":11285,"פולט":11286,"יחדיו":11287,"יצב":11288,"מתווך":11289,"פרוטו":11290,"הריבית":11291,"המתאימים":11292,"לשיער":11293,"קטין":11294,"וונים":11295,"העובדות":11296,"למחשב":11297,"בביתו":11298,"תרופה":11299,"מסוימות":11300,"לבניית":11301,"תפוח":11302,"עצומה":11303,"חיצוניים":11304,"הוכחה":11305,"בחולון":11306,"סולארית":11307,"Sup":11308,"ber":11309,"ֶיךָ":11310,"אורים":11311,"בכת":11312,"דאג":11313,"הכתבה":11314,"ומצד":11315,"מגלים":11316,"נחים":11317,"סתי":11318,"רבין":11319,"ורן":11320,"ולמעשה":11321,"איגוד":11322,"שיק":11323,"ברורים":11324,"הום":11325,"לוין":11326,"כללו":11327,"מתמיד":11328,"בעבודת":11329,"קראי":11330,"בתכנון":11331,"סוקים":11332,"מצאה":11333,"החזרה":11334,"השדה":11335,"ישנות":11336,"מחמי":11337,"לתנאי":11338,"גדלו":11339,"אשׁ":11340,"ספריה":11341,"המונים":11342,"בטעות":11343,"השיעור":11344,"דורשים":11345,"מטבעות":11346,"האיטל":11347,"האוטו":11348,"חלפו":11349,"הַק":11350,"ann":11351,"מנהג":11352,"קריאת":11353,"ens":11354,"שתייה":11355,"180":11356,"פרסמו":11357,"מאזן":11358,"רוחני":11359,"מלחמות":11360,"התחלה":11361,"ברקע":11362,"Haifa":11363,"הקרן":11364,"שָׁנָה":11365,"בינלאומיים":11366,"נכנסת":11367,"מאתנו":11368,"מסוגלת":11369,"משמעותיים":11370,"בחורף":11371,"נמוכים":11372,"רפאל":11373,"ואיכותי":11374,"Cont":11375,"מהנדס":11376,"תאורת":11377,"בבורסה":11378,"בצרפת":11379,"גאה":11380,"וכולם":11381,"וערבים":11382,"חלים":11383,"חכמי":11384,"יפתח":11385,"כשיש":11386,"ללימודים":11387,"מבח":11388,"סנו":11389,"סוריה":11390,"פעים":11391,"פקס":11392,"צובים":11393,"קץ":11394,"רגליים":11395,"ולצ":11396,"ביבי":11397,"בינוי":11398,"המכירות":11399,"ליטר":11400,"נובעת":11401,"ובדי":11402,"להקת":11403,"לאף":11404,"לאבי":11405,"לאחת":11406,"שרדי":11407,"פינס":11408,"סימון":11409,"חוקר":11410,"כינה":11411,"ציבות":11412,"בעכו":11413,"בתם":11414,"גומים":11415,"החזון":11416,"האנטי":11417,"כומים":11418,"העלה":11419,"העשרים":11420,"מחסור":11421,"במכ":11422,"צודק":11423,"לחדש":11424,"הפק":11425,"לשכה":11426,"חשק":11427,"חשבים":11428,"לפגוש":11429,"מנעו":11430,"לנוער":11431,"מטפל":11432,"ההוראה":11433,"נפגע":11434,"נפלאה":11435,"חלבון":11436,"128":11437,"החיוב":11438,"els":11439,"org":11440,"וכח":11441,"ics":11442,"בפברואר":11443,"אָנֹ":11444,"החרדית":11445,"חופשה":11446,"הפלסטיני":11447,"הַמֶּלֶךְ":11448,"הפלילי":11449,"פסיכולוגי":11450,"הטבעית":11451,"רלוונטי":11452,"התחושה":11453,"התלמוד":11454,"ובהתאם":11455,"הצבאית":11456,"שֻׁ":11457,"Ap":11458,"ver":11459,"דתו":11460,"דפים":11461,"דָּ":11462,"לטו":11463,"ללב":11464,"לכלי":11465,"מזור":11466,"פף":11467,"פנסיה":11468,"קבר":11469,"קנון":11470,"שפורסם":11471,"תעלות":11472,"שלטו":11473,"המפק":11474,"ליב":11475,"אתגרים":11476,"מילות":11477,"להרוג":11478,"דירים":11479,"חיפש":11480,"לופין":11481,"פיצה":11482,"סיבוב":11483,"כיבי":11484,"כיחה":11485,"מתים":11486,"קווים":11487,"קישורים":11488,"גידים":11489,"מעצר":11490,"מעצב":11491,"התמיכה":11492,"מסוב":11493,"מסכת":11494,"והט":11495,"יוון":11496,"השדרה":11497,"במכתב":11498,"לתובע":11499,"לתלמידים":11500,"הסול":11501,"הנמצא":11502,"הבנת":11503,"כרכור":11504,"הצפוני":11505,"פורניה":11506,"אפק":11507,"להתקיים":11508,"שמרי":11509,"אופק":11510,"1980":11511,"למימוש":11512,"החוזה":11513,"בפניו":11514,"חזרת":11515,"בלויות":11516,"נעצר":11517,"שכח":11518,"בשיטה":11519,"בשיטת":11520,"במסעדה":11521,"עַבְ":11522,"כסות":11523,"רעש":11524,"אַבְ":11525,"iss":11526,"קשורים":11527,"פגעו":11528,"ows":11529,"הצרכן":11530,"אינטל":11531,"גבעתיים":11532,"נֶיךָ":11533,"ליברמן":11534,"בלונדיניות":11535,"שומעים":11536,"שָּׁה":11537,"חנניה":11538,"').":11539,":)":11540,"ug":11541,"אפור":11542,"במעלה":11543,"במשפחה":11544,"דנאות":11545,"ומשת":11546,"ומוצרים":11547,"יגיעו":11548,"נקת":11549,"סֵ":11550,"רדי":11551,"שגב":11552,"תקרות":11553,"ולבסוף":11554,"רוטב":11555,"נוקס":11556,"מוגן":11557,"להרים":11558,"להביע":11559,"לוחמי":11560,"סיגל":11561,"פרקט":11562,"גיאו":11563,"התגובה":11564,"מסרו":11565,"סופ":11566,"מצאות":11567,"מחכים":11568,"במזו":11569,"באולם":11570,"למבוגרים":11571,"לענייני":11572,"לבדו":11573,"פתחים":11574,"הנשק":11575,"הפתיחה":11576,"בשרי":11577,"בשמחה":11578,"בקצה":11579,"כראוי":11580,"הגדוד":11581,"המופע":11582,"המומחה":11583,"נטע":11584,"שמגיעים":11585,"הדסה":11586,"העיקר":11587,"שקעות":11588,"יחזור":11589,"חוקק":11590,"צלם":11591,"לביתו":11592,"יציבות":11593,"למרבה":11594,"בכפוף":11595,"הוראת":11596,"מסייע":11597,"לסיכום":11598,"במחשב":11599,"בפיתוח":11600,"וחוסר":11601,"שָׁאוּל":11602,"לאחרים":11603,"הברכה":11604,"הבוס":11605,"ממשלתיים":11606,"זרוע":11607,"המרכזיים":11608,"בשבילי":11609,"הכדורגל":11610,"מעדיפים":11611,"׳™׳":11612,"אָנֹכִי":11613,"CC":11614,"Or":11615,"ай":11616,"בשווי":11617,"ומות":11618,"ונר":11619,"ממון":11620,"סלע":11621,"קסי":11622,"תנ":11623,"ניב":11624,"ביכול":11625,"המפור":11626,"המפתח":11627,"המפרץ":11628,"נועים":11629,"נוטים":11630,"הימין":11631,"שוע":11632,"כימי":11633,"משגב":11634,"גינו":11635,"הרשויות":11636,"והש":11637,"דונ":11638,"דודו":11639,"טוטים":11640,"טוסים":11641,"באול":11642,"מדפסות":11643,"הבלוג":11644,"הגאולה":11645,"המוחלט":11646,"המוסיקה":11647,"לרב":11648,"לרמה":11649,"לפגיעה":11650,"בסוריה":11651,"מנתי":11652,"לסמוך":11653,"erus":11654,"געש":11655,"פריז":11656,"הטבות":11657,"תחזוקה":11658,"פלציה":11659,"שהופך":11660,"הגיוני":11661,"חסון":11662,"שמיים":11663,"קלין":11664,"רצף":11665,"ותוך":11666,"טורס":11667,"אדמו":11668,"וצבע":11669,"סיימה":11670,"נזקי":11671,"יָהוּ":11672,"לארגון":11673,"ויוטה":11674,"המציע":11675,"הייחודי":11676,"וליהנות":11677,"המדיניות":11678,"קופסאות":11679,".)":11680,"Hot":11681,"be":11682,"по":11683,"ומיד":11684,"זב":11685,"טחת":11686,"יער":11687,"כץ":11688,"לכולנו":11689,"מניים":11690,"סורים":11691,"עב":11692,"פנחס":11693,"שבמ":11694,"תֵ":11695,"ותם":11696,"שלג":11697,"המכר":11698,"המורים":11699,"המשלוח":11700,"ליבו":11701,"לילים":11702,"אוהד":11703,"חיובים":11704,"נהלים":11705,"תיקונים":11706,"פינו":11707,"בהנ":11708,"בהתק":11709,"והשקי":11710,"ארבל":11711,"טרנס":11712,"יומיו":11713,"זוקת":11714,"הפחות":11715,"בחצי":11716,"בקבוצת":11717,"חשבות":11718,"המודעות":11719,"ומדי":11720,"לרפואה":11721,"לפרי":11722,"להתקין":11723,"הדורות":11724,"כננת":11725,"אורלי":11726,"הביקורת":11727,"לכלול":11728,"שיווי":11729,"בודדות":11730,"בליווי":11731,"פשרה":11732,"הציע":11733,"המידה":11734,"aron":11735,"הגידול":11736,"מסודרת":11737,"הרבנות":11738,"קבלנים":11739,"תעשיות":11740,"העוסקים":11741,"לאיכות":11742,"להשתלב":11743,"פוליטיקה":11744,"להעמיד":11745,"הפוסט":11746,"ענבים":11747,"נָא":11748,"שטחי":11749,"1995":11750,"חושף":11751,"סטרונו":11752,"העליונה":11753,"XXXXXX":11754,"אלקטרודות":11755,"ברציפות":11756,"האלקטרוני":11757,"פונדקאות":11758,"האגודה":11759,"Cent":11760,"LT":11761,"WW":11762,"ההחלטות":11763,"וחשוב":11764,"ושירותים":11765,"זמת":11766,"זמורת":11767,"לבלות":11768,"צבה":11769,"תשעה":11770,"ורש":11771,"ורדי":11772,"ביתית":11773,"שליש":11774,"הוגן":11775,"לווים":11776,"פיצ":11777,"סיפרה":11778,"תועלת":11779,"עודות":11780,"אלבו":11781,"קרח":11782,"החרי":11783,"בממוצע":11784,"טופל":11785,"למציאות":11786,"הפעולות":11787,"בקשו":11788,"לשאלות":11789,"פטריות":11790,"לגות":11791,"אבינו":11792,"אחראים":11793,"מכסים":11794,"החוקרים":11795,"האימון":11796,"האיחוד":11797,"מזמינים":11798,"צדדים":11799,"מסונג":11800,"המרכיבים":11801,"בחומר":11802,"ors":11803,"חורף":11804,"שמישהו":11805,"לאיש":11806,"במוזיאון":11807,"שהתקיים":11808,"התחנה":11809,"הלוואי":11810,"מועמד":11811,"בקיבוץ":11812,"אקטו":11813,"כיתות":11814,"ייחודיים":11815,"השתתף":11816,"separ":11817,"הפתעה":11818,"הכותל":11819,"separator":11820,"FI":11821,"Rish":11822,"fuck":11823,"сп":11824,"אסר":11825,"אחוזי":11826,"גאולה":11827,"דלא":11828,"הניתן":11829,"הכתוב":11830,"הבחור":11831,"הקיימות":11832,"ווח":11833,"ומספר":11834,"טעויות":11835,"ינת":11836,"כג":11837,"עקרו":11838,"צמי":11839,"קבורה":11840,"שֹ":11841,"תָה":11842,"וראו":11843,"המכללה":11844,"איז":11845,"מוביץ":11846,"מיקי":11847,"מירת":11848,"להבדיל":11849,"ברשימת":11850,"פיס":11851,"אחדים":11852,"מעולים":11853,"מעשית":11854,"התערוכה":11855,"פוקס":11856,"האסטרט":11857,"במבנה":11858,"הסכים":11859,"שותפת":11860,"כרך":11861,"לשמר":11862,"לשכוח":11863,"המוג":11864,"המושג":11865,"שמרו":11866,"הטקסט":11867,"אלוני":11868,"וְכָל":11869,"הנוף":11870,"באיזו":11871,"בנמל":11872,"חסרת":11873,"חדשנות":11874,"מכונית":11875,"לפרק":11876,"לפרסום":11877,"מוגבלת":11878,"השתנה":11879,"ראויה":11880,"נָתַ":11881,"יריחו":11882,"המדובר":11883,"אזרחית":11884,"1996":11885,"האמריקני":11886,"סגולה":11887,"הטרור":11888,"ההפעלה":11889,"הבינלאומית":11890,"אֹתוֹ":11891,"טיקאים":11892,"שטיחים":11893,"GH":11894,"ия":11895,"באהבה":11896,"גס":11897,"גדרה":11898,"גריות":11899,"דחה":11900,"דקת":11901,"החיילים":11902,"וולדמורט":11903,"יזר":11904,"כֵ":11905,"כרום":11906,"לנס":11907,"נקה":11908,"סעד":11909,"סבתא":11910,"רכבי":11911,"שבני":11912,"תכולת":11913,"המספר":11914,"המכבי":11915,"מיתוג":11916,"להנות":11917,"אוסט":11918,"עילויות":11919,"מתפשר":11920,"בהנחה":11921,"מעניקה":11922,"מספרי":11923,"והפעם":11924,"דוחות":11925,"סוסים":11926,"החקל":11927,"האבן":11928,"השתל":11929,"יתרה":11930,"לעקוב":11931,"לברוח":11932,"הפסקת":11933,"בשכונת":11934,"ואדי":11935,"אליציה":11936,"אנדר":11937,"קטעי":11938,"אפס":11939,"להתפלל":11940,"השיב":11941,"וחלקי":11942,"תראו":11943,"האישיות":11944,"עבורך":11945,"נחמן":11946,"עַן":11947,"המחנה":11948,"בזמנו":11949,"מוגבלויות":11950,"ברקאי":11951,"כנתים":11952,"ניצחו":11953,"ובוודאי":11954,"דיירים":11955,"נוזלים":11956,"עֹה":11957,"קנאביס":11958,"חמצן":11959,"קטוריון":11960,"BO":11961,"NA":11962,"mas":11963,"בגדול":11964,"גמל":11965,"גמור":11966,"חורים":11967,"יאפשר":11968,"כמא":11969,"מרון":11970,"נזה":11971,"נניח":11972,"סלט":11973,"קמו":11974,"תולדות":11975,"₪.":11976,"המחי":11977,"המדבר":11978,"שידור":11979,"ובסקי":11980,"להרוויח":11981,"לאחור":11982,"חיסכון":11983,"סינ":11984,"סידור":11985,"טיו":11986,"עומס":11987,"מצפון":11988,"לקרית":11989,"לעצב":11990,"מאמינה":11991,"הפשו":11992,"הפלמ":11993,"שאפילו":11994,"בחנו":11995,"בקהילה":11996,"הגדר":11997,"הגדרת":11998,"לטל":11999,"לרכישת":12000,"בסקי":12001,"שמצי":12002,"כשנה":12003,"כשמדובר":12004,"יצאנו":12005,"האופרה":12006,"הציג":12007,"עובדיה":12008,"בסיסית":12009,"ותיקים":12010,"במהרה":12011,"חשובות":12012,"גולד":12013,"קליין":12014,"גלישה":12015,"עברתי":12016,"אמינו":12017,"וצא":12018,"פיינת":12019,"המאמן":12020,"המיועד":12021,"שחקני":12022,"תפיסה":12023,"1998":12024,"גוריית":12025,"זרועות":12026,"לרשותכם":12027,"ביקשו":12028,"המאפשרת":12029,"לעובדים":12030,"רומנטית":12031,"לבריאות":12032,"כַּאֲשֶׁר":12033,"נעליים":12034,"הְיֶה":12035,"Rishon":12036,"\";":12037,"FO":12038,"PS":12039,"ֹאמֶר":12040,"דליה":12041,"דמנות":12042,"ההק":12043,"טני":12044,"טאי":12045,"יאנו":12046,"לטוב":12047,"נבל":12048,"סלק":12049,"עשע":12050,"פשע":12051,"שכירות":12052,"שכתבתי":12053,"ולהח":12054,"ביני":12055,"בידור":12056,"המרו":12057,"המצוות":12058,"היפים":12059,"מונע":12060,"סיונ":12061,"שומת":12062,"כיס":12063,"פרגולות":12064,"קינג":12065,"הרפורמה":12066,"העני":12067,"לתעבורה":12068,"הפדר":12069,"היהלום":12070,"כהה":12071,"בחורים":12072,"בחנויות":12073,"הגבר":12074,"גרסת":12075,"שנשאר":12076,"היומי":12077,"וקת":12078,"איתמר":12079,"מטפלים":12080,"האידי":12081,"סקבה":12082,"המיקום":12083,"מנוחה":12084,"אספו":12085,"שכבות":12086,"להודיע":12087,"המסחרי":12088,"מרוכז":12089,"שיירה":12090,"מרתקת":12091,"סורגים":12092,"אֵלֶּה":12093,"מקורית":12094,"משותפים":12095,"ERS":12096,"בֵּר":12097,"היתרון":12098,"קדושת":12099,"החורש":12100,"עגבניות":12101,"ברצינות":12102,"SMD":12103,"מתנדבים":12104,"?\".":12105,"IV":12106,"ky":12107,"tra":12108,"הכרטיס":12109,"הלשכה":12110,"חצר":12111,"חגור":12112,"טלר":12113,"טבעת":12114,"יורד":12115,"לנקות":12116,"נביא":12117,"פצים":12118,"פסוק":12119,"קנת":12120,"תגיע":12121,"תובעת":12122,"המנוח":12123,"לימי":12124,"מויות":12125,"מיותר":12126,"מיטה":12127,"תיעוד":12128,"בוגרי":12129,"שרשרת":12130,"שומרי":12131,"מרכיב":12132,"וילדים":12133,"נותרו":12134,"בעסק":12135,"התכנים":12136,"התשובות":12137,"הרפ":12138,"החשמ":12139,"יוגה":12140,"העצים":12141,"במחי":12142,"במכשיר":12143,"באם":12144,"למבו":12145,"הסקה":12146,"הקדושה":12147,"ערד":12148,"ספציפי":12149,"אנימציה":12150,"צהוב":12151,"בעין":12152,"להתקדם":12153,"מבטיה":12154,"הלחי":12155,"שקשור":12156,"גורל":12157,"האומה":12158,"מתוו":12159,"הגיש":12160,"מולדת":12161,"עסקת":12162,"אָדָם":12163,"למוות":12164,"הדברת":12165,"תפיסת":12166,"הפנימית":12167,"דיסקרטיים":12168,"וַיַּ":12169,"מייצג":12170,"php":12171,"עיתונאי":12172,"נּוּ":12173,"אפוא":12174,"מפוליאתילן":12175,"צִו":12176,".,":12177,"בצוות":12178,"גנת":12179,"גפן":12180,"ונג":12181,"וטרי":12182,"ומשפחות":12183,"חזי":12184,"חרוד":12185,"יף":12186,"כבש":12187,"לזו":12188,"לעודד":12189,"נקיים":12190,"סבו":12191,"סולו":12192,"סעיפים":12193,"פנסי":12194,"צמחו":12195,"רעה":12196,"ראם":12197,"שעושים":12198,"תפס":12199,"היותו":12200,"ריקה":12201,"מוציאים":12202,"מיטות":12203,"נהגים":12204,"עימים":12205,"סיכום":12206,"טיפוח":12207,"מרזבים":12208,"הרחוב":12209,"והחל":12210,"פוצ":12211,"נתנה":12212,"השפעת":12213,"העמים":12214,"באפריל":12215,"פתה":12216,"גלוב":12217,"עדשות":12218,"הקצר":12219,"ערכי":12220,"מפורס":12221,"חקלאית":12222,"דותו":12223,"חשמו":12224,"גרפית":12225,"וליות":12226,"פורמות":12227,"מלאו":12228,"בדמות":12229,"מנד":12230,"להתפתחות":12231,"אוטובוסים":12232,"ההובלה":12233,"הדיור":12234,"סקנה":12235,"האחרות":12236,"שיוכל":12237,"בילדים":12238,"במייל":12239,"הספרות":12240,"חורון":12241,"עַת":12242,"כספו":12243,"לאישור":12244,"המעמד":12245,"חבילת":12246,"ome":12247,"המשפטית":12248,"רוחנית":12249,"פייני":12250,"עָשׂ":12251,"בייצור":12252,"בינונית":12253,"לַח":12254,"בדואר":12255,"קְרָא":12256,"שופטת":12257,"כלכליים":12258,"הַמַּ":12259,"ארגנות":12260,"יניב":12261,"USB":12262,"9C":12263,"OCD":12264,"דשי":12265,"ההיסטורי":12266,"חדי":12267,"חלילה":12268,"ממל":12269,"נני":12270,"נתית":12271,"נבחרת":12272,"סלון":12273,"צחי":12274,"קפים":12275,"קמפיין":12276,"רעים":12277,"ותשתיות":12278,"המדרש":12279,"היכרות":12280,"איוב":12281,"אימא":12282,"ריצ":12283,"שיבו":12284,"ובאופן":12285,"דימה":12286,"אוכלוסי":12287,"ברבעון":12288,"עיניו":12289,"קיש":12290,"משטר":12291,"שהפך":12292,"עוֹד":12293,"ויין":12294,"כוך":12295,"לחים":12296,"הסובלים":12297,"הנפשי":12298,"מותאם":12299,"הבנים":12300,"כאורה":12301,"פטרו":12302,"עצמות":12303,"עלית":12304,"שנכנס":12305,"תראה":12306,"מכור":12307,"החום":12308,"נפשית":12309,"הריבונות":12310,"הגיל":12311,"טריק":12312,"משיכו":12313,"בתוקף":12314,"מִשְׁ":12315,"נשין":12316,"איילת":12317,"קניית":12318,"מַלְ":12319,"לאותה":12320,"ונוח":12321,"ביקורות":12322,"נהרגו":12323,"ואביזרי":12324,"הידיעה":12325,"להחלטת":12326,"BI":12327,"De":12328,"SS":12329,"Wind":12330,"oc":12331,"ив":12332,"не":12333,"אסיה":12334,"בֹ":12335,"בצו":12336,"בשיר":12337,"גט":12338,"דחו":12339,"ההתק":12340,"ומתוך":12341,"זָ":12342,"טעימה":12343,"יקיר":12344,"כשב":12345,"נהוג":12346,"ספיי":12347,"עורי":12348,"צבים":12349,"קדש":12350,"קדוש":12351,"רבני":12352,"שכאשר":12353,"ורוד":12354,"ולקנות":12355,"רושם":12356,"המרחב":12357,"המשותפת":12358,"איבד":12359,"איציק":12360,"מוץ":12361,"שוש":12362,"בהקדם":12363,"התחילה":12364,"התאמת":12365,"קרבות":12366,"הראו":12367,"החכם":12368,"ישבו":12369,"יתא":12370,"לחר":12371,"מאלה":12372,"הפתוח":12373,"ואנשים":12374,"שאמרו":12375,"מפעלים":12376,"הצעד":12377,"הצלחת":12378,"חרדי":12379,"בנין":12380,"סטור":12381,"נטור":12382,"היוצרים":12383,"להתח":12384,"וקשה":12385,"ידיו":12386,"סרטונים":12387,"ליתן":12388,"מטכ":12389,"יהוד":12390,"נפטר":12391,"המיטה":12392,"הפרס":12393,"משתנים":12394,"כליל":12395,"ארוחה":12396,"חסד":12397,"תעלה":12398,"לביקור":12399,"לחיצה":12400,"רעון":12401,"ביטקוין":12402,"אָב":12403,"ree":12404,"בעצמה":12405,"הטיפים":12406,"הכוללים":12407,"הברזל":12408,"צירתיות":12409,"מרכזיים":12410,"וַיִּשְׁ":12411,"אבקת":12412,"בבחירת":12413,"העמקים":12414,"המטפל":12415,"הַיּוֹם":12416,"תערובת":12417,"--------------------------------":12418,"התחומים":12419,"וירטואלי":12420,"תמצית":12421,"130":12422,"ware":12423,"אגדות":12424,"בגד":12425,"בֹּ":12426,"באתרים":12427,"בבנק":12428,"בבעיה":12429,"גאו":12430,"דחי":12431,"דבק":12432,"הבוד":12433,"הדעות":12434,"טְ":12435,"כטה":12436,"כשם":12437,"סקות":12438,"פכים":12439,"קק":12440,"המכיל":12441,"לילי":12442,"נופל":12443,"איטי":12444,"ובהמשך":12445,"מהעולם":12446,"פיג":12447,"סידן":12448,"שובי":12449,"פרעה":12450,"משכת":12451,"ויפה":12452,"בהשתתפות":12453,"הרות":12454,"סופרים":12455,"החקלאות":12456,"העותרת":12457,"מחאה":12458,"פתחת":12459,"בחרה":12460,"לשמירה":12461,"ספחים":12462,"המובילה":12463,"המובילות":12464,"ייעו":12465,"וחס":12466,"סרצ":12467,"החודשים":12468,"מספרות":12469,"יצרו":12470,"האחת":12471,"נפגש":12472,"החלטנו":12473,"מקומו":12474,"משיב":12475,"אַהֲרֹן":12476,"להעריך":12477,"עולמי":12478,"סייעו":12479,"תַּ":12480,"להסכם":12481,"1994":12482,"אינטגר":12483,"בִיא":12484,"הקודמים":12485,"אכילה":12486,"חיצונית":12487,"הגלילית":12488,"אשכנזי":12489,"הקבלן":12490,"get":12491,"ly":12492,"אבים":12493,"ההוצאות":12494,"וכאן":12495,"ופחות":12496,"ושיווק":12497,"חשים":12498,"כשרות":12499,"לעוד":12500,"ללימודי":12501,"נאמנות":12502,"רגישות":12503,"שלכות":12504,"רוגים":12505,"הממונה":12506,"המהלך":12507,"נופי":12508,"שיעזרו":12509,"מוספים":12510,"אופיר":12511,"לאספקת":12512,"לואים":12513,"סיקו":12514,"קודים":12515,"בהריון":12516,"בענייני":12517,"הרחוק":12518,"והשו":12519,"מצפים":12520,"השקט":12521,"במאבק":12522,"באליפות":12523,"לחצים":12524,"גלגלים":12525,"הפול":12526,"הפער":12527,"אשכול":12528,"בטלה":12529,"שורשים":12530,"ולוגים":12531,"ולוציה":12532,"הדיג":12533,"האופניים":12534,"ater":12535,"באישור":12536,"שִׁ":12537,"alem":12538,"משימות":12539,"מייקל":12540,"סבירה":12541,"חולק":12542,"חבילה":12543,"לחוף":12544,"חלוקה":12545,"הערכת":12546,"ראיון":12547,"לילדי":12548,"ניצנים":12549,"העצבים":12550,"מעורבים":12551,"דמיון":12552,"פלאים":12553,"ational":12554,"ood":12555,"מוניטין":12556,"רוטשילד":12557,"יוֹם":12558,"עיתונאים":12559,"התרופה":12560,"סטריט":12561,"מדריכים":12562,"המכשירים":12563,"\"-":12564,"119":12565,"MM":12566,"PC":12567,"те":12568,"בטוב":12569,"בשלושה":12570,"גְּ":12571,"וכיום":12572,"ידה":12573,"לָּ":12574,"מֵי":12575,"נכונים":12576,"נשלח":12577,"סנד":12578,"עע":12579,"רגיש":12580,"שכך":12581,"תפ":12582,"המבט":12583,"המנוע":12584,"לימו":12585,"נוגע":12586,"מופיעים":12587,"הוש":12588,"תיכון":12589,"מהדורת":12590,"קויים":12591,"מרשימה":12592,"ציטוט":12593,"התחום":12594,"מסח":12595,"הראוי":12596,"בלש":12597,"מצע":12598,"במפעל":12599,"כולוג":12600,"לתלמי":12601,"גלריה":12602,"הסרת":12603,"מארי":12604,"הנמצאים":12605,"חדות":12606,"בקנה":12607,"המשקל":12608,"המשפחות":12609,"צרפתי":12610,"בסלון":12611,"חייבויות":12612,"הטקס":12613,"ללחוץ":12614,"הרופאים":12615,"הפיקוח":12616,"המערב":12617,"ick":12618,"רעורים":12619,"מכוון":12620,"פוליטיים":12621,"פסיכו":12622,"לחוש":12623,"רגעים":12624,"old":12625,"שנוכל":12626,"פגשים":12627,"דמוקרטיה":12628,"שפעת":12629,"תאונת":12630,"צפויים":12631,"ראשונים":12632,"גרפיקה":12633,"קהילת":12634,"המתחם":12635,"האזרחי":12636,"מלכתחילה":12637,"erusalem":12638,"Ac":12639,"Her":12640,"Had":12641,"Sy":12642,"בנס":12643,"במוש":12644,"האות":12645,"ושה":12646,"וכלי":12647,"וצוות":12648,"זכיר":12649,"יבו":12650,"יפי":12651,"לדור":12652,"לפתרון":12653,"צן":12654,"רץ":12655,"רזי":12656,"שאותה":12657,"תבור":12658,"תִי":12659,"תביעת":12660,"ביעו":12661,"שלש":12662,"ליש":12663,"היעדר":12664,"מישור":12665,"ברח":12666,"ברשימה":12667,"הומני":12668,"סיד":12669,"מתע":12670,"קיצוני":12671,"קידוש":12672,"תוכנת":12673,"וילונות":12674,"בהעברת":12675,"התנאי":12676,"התחדשות":12677,"הרגש":12678,"והע":12679,"בתרבות":12680,"מצברים":12681,"החגים":12682,"השמים":12683,"כוסות":12684,"הענין":12685,"לקבוצות":12686,"למדים":12687,"לעברית":12688,"לחברי":12689,"לחלוק":12690,"מאליו":12691,"הנקודה":12692,"הפסח":12693,"הקבוע":12694,"הקמפיין":12695,"חדשני":12696,"הבכירה":12697,"שנגרם":12698,"וסף":12699,"הדלק":12700,"הדגל":12701,"לפיצוי":12702,"קורן":12703,"העיכול":12704,"מכסה":12705,"הבישול":12706,"החופש":12707,"ong":12708,"קדמה":12709,"נערים":12710,"צבאית":12711,"קליט":12712,"הָאֲ":12713,"נדרשת":12714,"ֵּן":12715,"צוין":12716,"הערכים":12717,"ענתו":12718,"יחיאל":12719,"כתיבת":12720,"טיילים":12721,"Inter":12722,"האופנה":12723,"קדושה":12724,"ויצמן":12725,"נולדה":12726,"מעבדת":12727,"Derech":12728,"Windows":12729,"'\".":12730,"ED":12731,"UN":12732,"WI":12733,"her":12734,"ire":12735,"из":12736,"בבעיות":12737,"באתרי":12738,"גאון":12739,"לבה":12740,"לטר":12741,"לפה":12742,"לשום":12743,"לקיר":12744,"נכנסו":12745,"סדרות":12746,"שסו":12747,"שמפ":12748,"שקיים":12749,"שבאמת":12750,"שכונת":12751,"ולהפ":12752,"המשל":12753,"מוסף":12754,"מוציא":12755,"מיניות":12756,"להגיב":12757,"להצביע":12758,"הומו":12759,"חיוני":12760,"בוטיק":12761,"עיקול":12762,"קיסר":12763,"והבר":12764,"ארכיון":12765,"החבילה":12766,"השמן":12767,"במכון":12768,"ותרבות":12769,"זילי":12770,"בקת":12771,"הבטן":12772,"לשער":12773,"הצבעים":12774,"עודף":12775,"ומם":12776,"הכלי":12777,"לגובה":12778,"צרית":12779,"מיומן":12780,"תקדים":12781,"בגני":12782,"מציצה":12783,"esp":12784,"הרוצים":12785,"תעסוקה":12786,"העונש":12787,"חדשנית":12788,"נתיבות":12789,"בעצמם":12790,"בהיותו":12791,"מזהה":12792,"יַד":12793,"אדריכלות":12794,"לשלטון":12795,"מדויקת":12796,"שטרן":12797,"במועדון":12798,"סטארט":12799,"הצלחתי":12800,"אֶחָד":12801,"A8":12802,"BA":12803,"BM":12804,"Jerusalem":12805,"no":12806,"po":12807,"им":12808,"גָ":12809,"ההבדלים":12810,"וטוב":12811,"זני":12812,"זבז":12813,"חצור":12814,"חַי":12815,"טַ":12816,"יאו":12817,"כע":12818,"מטים":12819,"משרות":12820,"מקרר":12821,"נֶה":12822,"נפוץ":12823,"פתיים":12824,"קובעת":12825,"קנדה":12826,"רמלה":12827,"תצא":12828,"ותקרות":12829,"ורבים":12830,"ולפני":12831,"רוחות":12832,"היש":12833,"שימור":12834,"מוניה":12835,"מייד":12836,"ובאו":12837,"לאבן":12838,"לוני":12839,"עירון":12840,"שוקה":12841,"מתבצעת":12842,"קומפ":12843,"פרא":12844,"פרקי":12845,"עוגה":12846,"בעשור":12847,"התקבלה":12848,"התערבות":12849,"הרדיו":12850,"ארכי":12851,"החזה":12852,"באדר":12853,"יהלום":12854,"לבדי":12855,"בשער":12856,"שאים":12857,"חשפו":12858,"ומדוע":12859,"כבדה":12860,"אפליק":12861,"מורשה":12862,"שבסופו":12863,"וקור":12864,"שעולה":12865,"אביה":12866,"מושך":12867,"תקשור":12868,"גוררים":12869,"מתוקה":12870,"הצילום":12871,"משתתף":12872,"קלוריות":12873,"als":12874,"לְךָ":12875,"המשיכו":12876,"באווירה":12877,"רצפות":12878,"יציבה":12879,"בכמות":12880,"הופעת":12881,"בעצמכם":12882,"כביסה":12883,"הרצפה":12884,"כנתאות":12885,"המקומיים":12886,"שטחים":12887,"מעיד":12888,"חסידי":12889,"סוללות":12890,"ign":12891,"העלאת":12892,"akh":12893,"ations":12894,"ההשכרה":12895,"1984":12896,"תשוקה":12897,"פתוחים":12898,"סטרואידים":12899,"אדריכלים":12900,"תדמית":12901,"יוקרתי":12902,"אפליקציה":12903,"'+":12904,"PE":12905,"Se":12906,"ֵה":12907,"ֵם":12908,"בפורטל":12909,"הולי":12910,"האופן":12911,"ודר":12912,"חבים":12913,"טלת":12914,"ימות":12915,"כחו":12916,"כורה":12917,"מולה":12918,"סמית":12919,"צם":12920,"צבר":12921,"צדיק":12922,"רשומה":12923,"שכלל":12924,"ניאל":12925,"ולמו":12926,"ביטל":12927,"ביפן":12928,"רוברט":12929,"נוֹת":12930,"הילדה":12931,"אישרה":12932,"ובדת":12933,"להעברת":12934,"אונת":12935,"לארי":12936,"עלמות":12937,"תיע":12938,"תיווך":12939,"סירב":12940,"כיאטר":12941,"ציית":12942,"מען":12943,"התפשטות":12944,"מסטר":12945,"קרבו":12946,"הראיות":12947,"דווח":12948,"מצאנו":12949,"מחמד":12950,"יתָ":12951,"זוכים":12952,"לעדי":12953,"לעזרה":12954,"הסג":12955,"בשטחים":12956,"הבלו":12957,"הגדי":12958,"הכתיבה":12959,"שנאה":12960,"היופי":12961,"ממול":12962,"ממתי":12963,"מודלים":12964,"גורדון":12965,"שיוו":12966,"הַשּׁ":12967,"משתמשי":12968,"רחצה":12969,"באיטליה":12970,"נעשו":12971,"בחוף":12972,"חורת":12973,"בשלל":12974,"העומדים":12975,"מרוצה":12976,"רצפה":12977,"אֵלֶ":12978,"מכלול":12979,"עשויות":12980,"ונוחה":12981,"משלמים":12982,"המבוגרים":12983,"הצרפתי":12984,"מגוונות":12985,"נגרס":12986,"אקדמי":12987,"מסחריים":12988,"עוזיאל":12989,"מסייעת":12990,"מרחביה":12991,"Ramat":12992,"והשקיה":12993,"Bo":12994,"DU":12995,"אבת":12996,"בפה":12997,"דח":12998,"דנו":12999,"דנית":13000,"ונק":13001,"ירות":13002,"יכלו":13003,"לכדי":13004,"נעלם":13005,"סב":13006,"עשית":13007,"עשורים":13008,"פדה":13009,"רטונים":13010,"שעם":13011,"שמד":13012,"נוטה":13013,"מיצו":13014,"ובנה":13015,"להכ":13016,"תינו":13017,"פיני":13018,"פיטר":13019,"עידו":13020,"עיתונים":13021,"כייה":13022,"ויחד":13023,"מעש":13024,"מעבירים":13025,"התאים":13026,"בתביעה":13027,"גועה":13028,"החשש":13029,"השמחה":13030,"ביתה":13031,"זוגית":13032,"לחול":13033,"הסמכות":13034,"בשאר":13035,"שארו":13036,"חדת":13037,"לשוב":13038,"הצט":13039,"הצלה":13040,"המשקיעים":13041,"סטול":13042,"נגה":13043,"בטלוויזיה":13044,"מודול":13045,"לסדר":13046,"לפנינו":13047,"ניידות":13048,"יחסו":13049,"שיווקי":13050,"רחמים":13051,"החיסון":13052,"יראו":13053,"הקונס":13054,"מאידך":13055,"מחוד":13056,"עַר":13057,"חובבי":13058,"מרוקו":13059,"osh":13060,"הסופית":13061,"טוריה":13062,"קנייה":13063,"מגיעות":13064,"תְּ":13065,"בקומה":13066,"תחתון":13067,"רכיבים":13068,"המיוחדים":13069,"דמוי":13070,"054":13071,"הרפואית":13072,"оры":13073,"המיוחדת":13074,"המחשבים":13075,"ישוע":13076,"הבורסה":13077,"פרוייקטים":13078,"הסכימו":13079,"ההסתדרות":13080,"הפוטנציאל":13081,"הלהקה":13082,"One":13083,"ели":13084,"ֶךָ":13085,"בקה":13086,"במוסדות":13087,"ההכנסות":13088,"ושר":13089,"ומאפשר":13090,"זנה":13091,"זקי":13092,"חבות":13093,"טכנית":13094,"מרוב":13095,"סער":13096,"צתי":13097,"צחוק":13098,"ששם":13099,"ניא":13100,"ביקשה":13101,"המפו":13102,"המצור":13103,"המבטח":13104,"המהווה":13105,"המבקרים":13106,"ליבה":13107,"ברצוני":13108,"שראת":13109,"פיא":13110,"שומרת":13111,"ציבה":13112,"ויהי":13113,"בערים":13114,"בתמורה":13115,"החשוד":13116,"האני":13117,"השף":13118,"כונס":13119,"אהוב":13120,"במרו":13121,"טוביה":13122,"לתרבות":13123,"לתהליך":13124,"למלון":13125,"לעניינים":13126,"לבעל":13127,"לבקשת":13128,"הנצי":13129,"בשמים":13130,"בשבט":13131,"כהנים":13132,"פורד":13133,"לטענתו":13134,"בעיניי":13135,"מורפי":13136,"שליטת":13137,"שבאו":13138,"לסטודנטים":13139,"מבתי":13140,"מבקרים":13141,"ונל":13142,"אורית":13143,"מדין":13144,"מטען":13145,"תחזית":13146,"עבורי":13147,"מוצקין":13148,"הפרטיות":13149,"שַׁ":13150,"וכלה":13151,"מניית":13152,"מחוסר":13153,"באוגוסט":13154,"בתוכה":13155,"1465":13156,"המחזור":13157,"בזמנים":13158,"שייכים":13159,"מעוצב":13160,"עזב":13161,"מבחינתי":13162,"מסתכל":13163,"עשינו":13164,"רצינית":13165,"אזרח":13166,"בינלאומית":13167,"חזרתי":13168,"במצבים":13169,"מבטחים":13170,"מעצבים":13171,"בדרכי":13172,"הגופים":13173,"ING":13174,"הפסיכולו":13175,"ואביזרים":13176,"הבטחה":13177,"לפוצץ":13178,"אֹתָהּ":13179,"הבשן":13180,"As":13181,"Har":13182,"SC":13183,"Serv":13184,"בבא":13185,"בפסטיבל":13186,"גבה":13187,"הקיימת":13188,"זלי":13189,"זכאים":13190,"חטא":13191,"יקום":13192,"יסת":13193,"יזם":13194,"נמאס":13195,"נמלים":13196,"סָ":13197,"סטיים":13198,"פער":13199,"קולה":13200,"שצי":13201,"תשת":13202,"המנכ":13203,"המבנים":13204,"נושאי":13205,"אישר":13206,"מיע":13207,"ובטח":13208,"הוגש":13209,"לאבד":13210,"גיבוש":13211,"וירי":13212,"הרצוי":13213,"ארבעים":13214,"פוזיציה":13215,"יועצים":13216,"האסלא":13217,"כואב":13218,"לקשר":13219,"במבחן":13220,"צומה":13221,"טוש":13222,"כוללות":13223,"לחנות":13224,"לבעיה":13225,"הנמוך":13226,"זיקו":13227,"בקור":13228,"הגנים":13229,"הגברת":13230,"הגמרא":13231,"ספורים":13232,"חתמו":13233,"להיראות":13234,"לפולי":13235,"מורן":13236,"היומיו":13237,"אופנוע":13238,"העירוני":13239,"שקדים":13240,"אזורים":13241,"גענו":13242,"יעשו":13243,"קרובה":13244,"המיזם":13245,"ance":13246,"הסיוע":13247,"נשכח":13248,"בלוק":13249,"מכילה":13250,"מאיפה":13251,"באום":13252,"מרוד":13253,"למראה":13254,"שמענו":13255,"ile":13256,"תכנות":13257,"אייג":13258,"פלייס":13259,"לָכֶם":13260,"בכיוון":13261,"מרתון":13262,"להגנת":13263,"להגשת":13264,"תָּ":13265,"סקירה":13266,"יקנעם":13267,"הרוחני":13268,"תסמונת":13269,"תלויים":13270,"שוטפת":13271,"להמתין":13272,"החלקים":13273,"מתקדמות":13274,"קהיל":13275,"הדרושים":13276,"סטנדרטים":13277,"סלולר":13278,"גירושין":13279,")(":13280,"BT":13281,"DE":13282,"P1000":13283,"far":13284,"sm":13285,"лу":13286,"אכפת":13287,"בגוש":13288,"הרוב":13289,"הגדלת":13290,"וכתב":13291,"חשה":13292,"חגים":13293,"ירת":13294,"ייתן":13295,"לסוף":13296,"לבוש":13297,"נמכר":13298,"סֶ":13299,"סמ":13300,"צורי":13301,"שאות":13302,"שאותם":13303,"ורם":13304,"ורבורג":13305,"ניכרת":13306,"רואי":13307,"אימפרי":13308,"שיך":13309,"שיחק":13310,"וברות":13311,"תימן":13312,"פיקים":13313,"פילות":13314,"קוּ":13315,"קוקוס":13316,"גימור":13317,"גישור":13318,"שהכי":13319,"עום":13320,"ויום":13321,"בהור":13322,"מעביר":13323,"התקדמות":13324,"הרעיונות":13325,"דוחה":13326,"החשיבות":13327,"יוחאי":13328,"האפ":13329,"השכונה":13330,"באנגליה":13331,"למנהל":13332,"לערעורים":13333,"הספקים":13334,"מאפיינים":13335,"הנקודות":13336,"זיכוי":13337,"בחרי":13338,"להיפגש":13339,"מנקודת":13340,"הלכו":13341,"תקציר":13342,"החוקים":13343,"נייפ":13344,"לנזק":13345,"מכינים":13346,"מלאכת":13347,"ידאו":13348,"ושכירת":13349,"התקשרו":13350,"קליפ":13351,"בולט":13352,"לביטול":13353,"סטיבל":13354,"מייק":13355,"המעפילים":13356,"חביבה":13357,"הניצחון":13358,"לחוויה":13359,"קשן":13360,"אצלכם":13361,"סדנת":13362,"להסתיר":13363,"שנועד":13364,"הגרמנים":13365,"חקיקה":13366,"מתחרים":13367,"ארגונית":13368,"גנטית":13369,"מינל":13370,"יורם":13371,"מתרחש":13372,"ההכרה":13373,"סוציאלי":13374,"האקדמית":13375,"הנאצים":13376,"מעדיף":13377,"עמנואל":13378,"Am":13379,"Sp":13380,"To":13381,"UM":13382,"ло":13383,"הבה":13384,"ההז":13385,"וורד":13386,"טנ":13387,"טניס":13388,"טויוטה":13389,"יביא":13390,"כורים":13391,"מקה":13392,"נמנ":13393,"סרו":13394,"פנוי":13395,"צחו":13396,"קורים":13397,"תמלול":13398,"בייש":13399,"המבור":13400,"היקר":13401,"מופת":13402,"ברדיו":13403,"חינ":13404,"פירוט":13405,"סיבו":13406,"סיבית":13407,"סינית":13408,"סיורים":13409,"שוטר":13410,"מתמחים":13411,"קידו":13412,"גיגה":13413,"אלן":13414,"מעשים":13415,"התקיימה":13416,"בלק":13417,"פוטרו":13418,"האלימות":13419,"השנתי":13420,"השבועות":13421,"צועה":13422,"באנו":13423,"באנשים":13424,"הנס":13425,"הגעה":13426,"ספקי":13427,"אנרג":13428,"כמון":13429,"שנעשו":13430,"בטעם":13431,"ייצוג":13432,"ממגוון":13433,"שבדרך":13434,"מערכה":13435,"העיסוק":13436,"מטריה":13437,"ההלו":13438,"כשאתה":13439,"וְאֵת":13440,"בליגה":13441,"בלימודים":13442,"מוצעת":13443,"מוצלחת":13444,"ata":13445,"קשרות":13446,"נעלה":13447,"אֲלֵ":13448,"ַּח":13449,"שביצע":13450,"לאישה":13451,"יציקות":13452,"סביבתי":13453,"שמעה":13454,"רָם":13455,"אצבע":13456,"במחלות":13457,"הטיסה":13458,"מומלצת":13459,"רכיבה":13460,"1999":13461,"ניסן":13462,"תאונה":13463,"ower":13464,"הפוליסה":13465,"הירושלמי":13466,"אסטרטגיה":13467,"וחלקם":13468,"נפוצה":13469,"במלוא":13470,"למשוך":13471,"שמריהו":13472,"Man":13473,"sche":13474,"ха":13475,"אגה":13476,"בטר":13477,"בגוד":13478,"גמלי":13479,"דמים":13480,"הבק":13481,"טז":13482,"כֵן":13483,"למערכות":13484,"צנות":13485,"קניי":13486,"רבת":13487,"תֹּ":13488,"נינג":13489,"הייה":13490,"מוכיח":13491,"ובלבד":13492,"להפריד":13493,"להשקעה":13494,"לאם":13495,"לאלה":13496,"עילי":13497,"שואים":13498,"טיביים":13499,"גינת":13500,"ויצא":13501,"קרטי":13502,"השד":13503,"לקטו":13504,"לתבוע":13505,"לתקנות":13506,"גלל":13507,"הנער":13508,"הפלא":13509,"הפקה":13510,"הקסם":13511,"שאכן":13512,"המודיעין":13513,"חררים":13514,"כמוך":13515,"סטטוסים":13516,"ולהפוך":13517,"הכנו":13518,"לפתי":13519,"מלמעלה":13520,"מסלולים":13521,"ונעים":13522,"קוראת":13523,"לצמצם":13524,"הטבעת":13525,"הַש":13526,"המינים":13527,"מציגים":13528,"הכיכר":13529,"מנוסים":13530,"ואינה":13531,"בלוקי":13532,"נעשתה":13533,"דיוויד":13534,"מניח":13535,"עַם":13536,"כפית":13537,"תקופות":13538,"בכורה":13539,"אמיתיים":13540,"בְנֵי":13541,"הפופ":13542,"מַה":13543,"בפירוש":13544,"רשמית":13545,"עריף":13546,"נחשף":13547,"שיפוטי":13548,"ֹדֶשׁ":13549,"נצרטים":13550,"מעוצבות":13551,"אפליקציית":13552,"הנוסעים":13553,"שֶׂה":13554,"IES":13555,"בהוצאות":13556,"במערב":13557,"הנייד":13558,"וגן":13559,"יכם":13560,"כמ":13561,"כויות":13562,"כֹל":13563,"לגל":13564,"מלת":13565,"נגרם":13566,"סמסונג":13567,"ענתה":13568,"פאות":13569,"צער":13570,"’,":13571,"ולמות":13572,"בישים":13573,"רועות":13574,"רופות":13575,"נוקיה":13576,"איבר":13577,"אימונים":13578,"מיהו":13579,"ברעננה":13580,"הוצל":13581,"סירים":13582,"סינון":13583,"כיבה":13584,"מתקבל":13585,"מתכננים":13586,"ציפוי":13587,"קיצור":13588,"משתי":13589,"תופעת":13590,"עוזרת":13591,"אלק":13592,"אלר":13593,"ויקרא":13594,"בהתי":13595,"מעלית":13596,"הרחק":13597,"והצי":13598,"סוכן":13599,"מצטיי":13600,"העניינים":13601,"העקרונות":13602,"למגוון":13603,"זוכרים":13604,"לחתום":13605,"לבקשה":13606,"הסכנה":13607,"הפלשתי":13608,"מקים":13609,"מקלט":13610,"חותם":13611,"לשבור":13612,"לשכור":13613,"הצדק":13614,"המונח":13615,"המשמש":13616,"ומגו":13617,"לטעמי":13618,"להיום":13619,"עליים":13620,"לפנים":13621,"בצלאל":13622,"פותחת":13623,"שעשיתי":13624,"השיי":13625,"חיילי":13626,"פוליש":13627,"עוררות":13628,"יחולו":13629,"יעמוד":13630,"הנוחות":13631,"ary":13632,"ats":13633,"צלן":13634,"חסרים":13635,"קטיקה":13636,"מתייחסים":13637,"ההתנגדות":13638,"פוליאתילן":13639,"התחתונה":13640,"עֲבָ":13641,"מועדו":13642,"בהירות":13643,"ביהדות":13644,"הראשוני":13645,"אולמרט":13646,"עוצמת":13647,"מקיפה":13648,"פדפן":13649,"משאבות":13650,"היציאה":13651,"מהפכה":13652,"יישאר":13653,"המצווה":13654,"המודרנית":13655,"מסויימים":13656,"עִיר":13657,"Car":13658,"Mal":13659,"xml":13660,"аз":13661,"ые":13662,"אֵי":13663,"בכם":13664,"דְּ":13665,"ההיא":13666,"ומערכות":13667,"כנסי":13668,"כמתו":13669,"כעס":13670,"כריות":13671,"כותרת":13672,"לדברים":13673,"לזכויות":13674,"לסוג":13675,"נמשיך":13676,"סדרי":13677,"פגם":13678,"שהיום":13679,"שגרי":13680,"ורשת":13681,"ביפו":13682,"המחו":13683,"המאור":13684,"ליר":13685,"היכנסו":13686,"להבים":13687,"ברמות":13688,"הוה":13689,"חין":13690,"חידת":13691,"לוו":13692,"עיצו":13693,"סייד":13694,"טייה":13695,"שהור":13696,"פוסים":13697,"מצן":13698,"החובה":13699,"החדרים":13700,"הערבה":13701,"כתר":13702,"למגזר":13703,"לחדרי":13704,"הנני":13705,"הקשים":13706,"מפקח":13707,"הגעתם":13708,"אליפות":13709,"חרף":13710,"פורמט":13711,"מנורה":13712,"להתפתח":13713,"שמנים":13714,"וקות":13715,"שעמד":13716,"בנוכחות":13717,"int":13718,"העירונית":13719,"מטעמה":13720,"ההור":13721,"הטענות":13722,"כשאתם":13723,"ועסקים":13724,"נפלד":13725,"בחיפוש":13726,"הכללים":13727,"טבעו":13728,"בנתי":13729,"לעיין":13730,"במסגרתו":13731,"מאיה":13732,"גולט":13733,"פקיעין":13734,"פשוטות":13735,"וביקש":13736,"במושב":13737,"נשיקות":13738,"יִשְׂ":13739,"המשפחתי":13740,"לסטיק":13741,"לעצמנו":13742,"לייצור":13743,"סיימו":13744,"בקושי":13745,"וַיֹּאמ":13746,"הגרסה":13747,"טקסטים":13748,"טייבה":13749,"המבוסס":13750,"ירושלמי":13751,"נחשון":13752,"מָן":13753,"שתוכל":13754,"רצועת":13755,"המגורים":13756,"הפריטים":13757,"ומקלטים":13758,"לרופא":13759,"תפוחי":13760,"המקצועיים":13761,"לעדכן":13762,"מפורש":13763,"הרחבת":13764,"הקוראים":13765,"מעוצבים":13766,"השרירים":13767,"בֵית":13768,"האינטרסים":13769,"פירושו":13770,"עוֹלָם":13771,"\"...":13772,"Nah":13773,"Post":13774,"kh":13775,"ав":13776,"ья":13777,"בנפח":13778,"בבריטניה":13779,"דפנה":13780,"ההוצאה":13781,"ועבודה":13782,"טָ":13783,"טציה":13784,"כפו":13785,"כפל":13786,"מגרש":13787,"נאור":13788,"סגר":13789,"שפשוט":13790,"‏;":13791,"ביקר":13792,"ביער":13793,"רומא":13794,"רוסית":13795,"המקרקעין":13796,"ליגה":13797,"שילה":13798,"מיעוט":13799,"ובדרך":13800,"הוָה":13801,"לאמנות":13802,"בוננות":13803,"שרדו":13804,"מתבצע":13805,"מרטין":13806,"ציגי":13807,"אלמוג":13808,"קראינה":13809,"דוקטור":13810,"סוח":13811,"יומן":13812,"האנגלית":13813,"כוונ":13814,"כתובה":13815,"באס":13816,"באדם":13817,"לחברים":13818,"לחתונה":13819,"פתעה":13820,"הפחד":13821,"בשות":13822,"הקורא":13823,"ואלי":13824,"לשטח":13825,"ספקה":13826,"המושלמת":13827,"צהריים":13828,"וליצור":13829,"בריאותי":13830,"חתול":13831,"חתולים":13832,"בדבריו":13833,"הדפסה":13834,"השוואת":13835,"וחמים":13836,"לדף":13837,"נפשו":13838,"ירדו":13839,"הקושי":13840,"וכתוצאה":13841,"מחודש":13842,"משיכה":13843,"דרישת":13844,"itz":13845,"גליות":13846,"וייחו":13847,"ומתח":13848,"אצבעות":13849,"הפוסקים":13850,"קרקעי":13851,"הטיפולים":13852,"סלמים":13853,"תפילת":13854,"ממוחשבת":13855,"יגרום":13856,"סגנו":13857,"הגבוהים":13858,"חוששים":13859,"וללמוד":13860,"log":13861,"צבעוני":13862,"מפרטורות":13863,"חשבתם":13864,"לפרויקט":13865,"הבולטים":13866,"בקבוקי":13867,"תהילים":13868,"גמליאל":13869,"?)":13870,"It":13871,"Mark":13872,"SER":13873,"ах":13874,"ис":13875,"уд":13876,"בהודעה":13877,"בכוחות":13878,"גנר":13879,"דאו":13880,"דנים":13881,"דַּ":13882,"זולה":13883,"זמרת":13884,"יפעת":13885,"כאות":13886,"מליון":13887,"משלם":13888,"ממחיר":13889,"סתו":13890,"סִי":13891,"פאנ":13892,"פחים":13893,"שעליה":13894,"תהא":13895,"€˜":13896,"ביצירת":13897,"שלמד":13898,"ליוני":13899,"הילו":13900,"דיס":13901,"אודיו":13902,"אוניית":13903,"ברל":13904,"מהאו":13905,"בוח":13906,"בוֹת":13907,"פיקו":13908,"עירית":13909,"חווי":13910,"חוויית":13911,"כיפה":13912,"קונ":13913,"מרקט":13914,"קיומה":13915,"משנות":13916,"תוס":13917,"עוגת":13918,"בהשראת":13919,"זהים":13920,"דרמטי":13921,"מסרה":13922,"והתי":13923,"השכל":13924,"כוניות":13925,"מחור":13926,"במאגר":13927,"במפורש":13928,"שתים":13929,"זוע":13930,"זוכרת":13931,"הסף":13932,"הנזי":13933,"הפסוק":13934,"זיין":13935,"מקורה":13936,"בחג":13937,"אשדות":13938,"לשאר":13939,"המופיע":13940,"המופיעים":13941,"ומצי":13942,"לרצו":13943,"ולהגיע":13944,"נטון":13945,"לפס":13946,"היועצים":13947,"אביטל":13948,"אחריהם":13949,"האחורי":13950,"ana":13951,"הפרטית":13952,"חזן":13953,"מנוסה":13954,"נערה":13955,"מסוגים":13956,"מלאכה":13957,"מוסרי":13958,"מניעה":13959,"התקף":13960,"בהתחשב":13961,"בתואר":13962,"בכבוד":13963,"שרירי":13964,"ets":13965,"קודמים":13966,"בעצמי":13967,"למדנו":13968,"עמיר":13969,"השתלמות":13970,"יבשה":13971,"מועצה":13972,"שחורים":13973,"שוויץ":13974,"המבוססת":13975,"ירוקים":13976,"בצימר":13977,"הִנֵּה":13978,"החלומות":13979,"לֵךְ":13980,"תאומים":13981,"במצרים":13982,"able":13983,"שחייה":13984,"וַיֹּאמֶר":13985,"מפריע":13986,"החלקה":13987,"סריט":13988,"המאפשרים":13989,"הירידה":13990,"החמישי":13991,"המעוניינים":13992,"המסורתית":13993,"אלכסנדר":13994,"כלונסאות":13995,"microsoft":13996,"מיצובישי":13997,"Fr":13998,"IS":13999,"ok":14000,"ry":14001,"ик":14002,"чес":14003,"בחדרי":14004,"בפולין":14005,"הכבד":14006,"ההבנה":14007,"חלש":14008,"טפת":14009,"כשיטים":14010,"לנג":14011,"למשהו":14012,"מבעלי":14013,"עתיק":14014,"ענייני":14015,"צף":14016,"תובנות":14017,"ולס":14018,"ולמי":14019,"רובנו":14020,"המפה":14021,"ריאלי":14022,"מונח":14023,"מיסים":14024,"להאריך":14025,"להרוס":14026,"אוביי":14027,"ברעם":14028,"חירות":14029,"פישר":14030,"פיית":14031,"שומות":14032,"טינה":14033,"קיפות":14034,"תוספי":14035,"אלפא":14036,"וילות":14037,"מעניקים":14038,"התס":14039,"התנגד":14040,"והפך":14041,"החזרת":14042,"האזורי":14043,"השורה":14044,"כונן":14045,"במפגש":14046,"באלו":14047,"באמריקה":14048,"למחי":14049,"למקרה":14050,"לחל":14051,"הנחת":14052,"שאז":14053,"שאמור":14054,"מקרוב":14055,"בחזית":14056,"בקבוצות":14057,"לשולחן":14058,"המודל":14059,"המוכרים":14060,"ומגוון":14061,"גרסאות":14062,"חרש":14063,"בריכות":14064,"פורמציה":14065,"זרק":14066,"צריכות":14067,"הדרישה":14068,"מבחוץ":14069,"ines":14070,"מכרו":14071,"תחזוקת":14072,"ברונפ":14073,"מזגנים":14074,"נפגשים":14075,"בליל":14076,"פרוץ":14077,"הפרטיים":14078,"זכרים":14079,"לְמַ":14080,"חסות":14081,"במסע":14082,"טריה":14083,"עַמּ":14084,"וּמִ":14085,"נטייה":14086,"סביבת":14087,"שמעולם":14088,"להשתלט":14089,"טורקיה":14090,"מעויות":14091,"eth":14092,"אָבִי":14093,"הנתבעות":14094,"הבריטים":14095,"ערוצי":14096,"עולמות":14097,"עשירים":14098,"גביע":14099,"נמצאות":14100,"רציונ":14101,"ופח":14102,"חֲמִ":14103,"להקשיב":14104,"יזמים":14105,"דגניה":14106,"הנדס":14107,"למדינת":14108,"שקועים":14109,"גמישות":14110,"Shem":14111,"בסביבות":14112,"מִצְרַיִם":14113,"מסויימת":14114,"תעשייתי":14115,"קבוצתי":14116,"אמריקאית":14117,"טואציה":14118,"שֻׁעַ":14119,"ברונפמן":14120,")).":14121,"He":14122,"La":14123,"Op":14124,"Иер":14125,"для":14126,"жен":14127,"ְרוּ":14128,"ַת":14129,"אפיה":14130,"בזאת":14131,"בֹא":14132,"בבירור":14133,"גולים":14134,"דקל":14135,"דמיי":14136,"חקו":14137,"יבר":14138,"כסי":14139,"לף":14140,"ממס":14141,"נמנע":14142,"עזי":14143,"עבדו":14144,"פחת":14145,"קלע":14146,"קארי":14147,"רגש":14148,"שמור":14149,"שאומרים":14150,"תבו":14151,"ותמיד":14152,"ורב":14153,"ניצב":14154,"המהיר":14155,"ליגת":14156,"איברים":14157,"שיצר":14158,"מוכים":14159,"מוזיק":14160,"להתו":14161,"להכנס":14162,"דיף":14163,"דימונה":14164,"הווים":14165,"שוכן":14166,"טיפוס":14167,"מתחום":14168,"מתקופת":14169,"ציפור":14170,"עוצר":14171,"דרגת":14172,"התקבל":14173,"האהוב":14174,"השאירו":14175,"לקבוצת":14176,"צווי":14177,"כתם":14178,"הסברים":14179,"מאבד":14180,"הנקרה":14181,"הקניות":14182,"ואט":14183,"הבכורה":14184,"אשור":14185,"לשעה":14186,"המועמדים":14187,"להיט":14188,"בדור":14189,"היוצר":14190,"להתמקד":14191,"שעובר":14192,"השירה":14193,"השיניים":14194,"נקנר":14195,"הבירה":14196,"החוזים":14197,"101":14198,"יחסת":14199,"יצליח":14200,"האיסור":14201,"הציור":14202,"הפרת":14203,"שכמעט":14204,"וככל":14205,"וכנראה":14206,"לחיבור":14207,"שייט":14208,"החלפה":14209,"בחרתי":14210,"חריפה":14211,"ערובת":14212,"וכיוצא":14213,"לקיום":14214,"הגרעין":14215,"המדד":14216,"מהרגע":14217,"אזרחיים":14218,"ייחודיות":14219,"מפואר":14220,"מאחור":14221,"משפחתה":14222,"החלוקה":14223,"רוזן":14224,"עיינות":14225,"שניתנה":14226,"שֹׁ":14227,"espace":14228,"<?":14229,"DA":14230,"Gu":14231,"We":14232,"Yaf":14233,"[=":14234,"pref":14235,"ֶּה":14236,"בשרת":14237,"דאז":14238,"ונט":14239,"וכולל":14240,"זמינים":14241,"ירח":14242,"ימשיך":14243,"ככלל":14244,"לזוג":14245,"מבור":14246,"נשת":14247,"ננסים":14248,"עמל":14249,"צבת":14250,"שתית":14251,"שכולנו":14252,"תן":14253,"ال":14254,"בייה":14255,"שלמרות":14256,"רופה":14257,"רוֹן":14258,"המזו":14259,"ליעד":14260,"ליזם":14261,"ליישם":14262,"נונה":14263,"הישוב":14264,"ריץ":14265,"מובא":14266,"מופעי":14267,"ובחו":14268,"סירי":14269,"סירה":14270,"חומרה":14271,"שווקים":14272,"שוורץ":14273,"כיסא":14274,"טיפת":14275,"מרפסת":14276,"גילות":14277,"מעבדים":14278,"התקווה":14279,"מסבירה":14280,"בלנות":14281,"והכוונה":14282,"נתחיל":14283,"החמה":14284,"האדמו":14285,"השבחה":14286,"מחק":14287,"במבט":14288,"הסתם":14289,"עדכונים":14290,"הפסק":14291,"בשכר":14292,"בשבועות":14293,"ערנו":14294,"מקצועות":14295,"הגדרות":14296,"לשדרג":14297,"סטורים":14298,"נטרי":14299,"הכנסייה":14300,"שנולד":14301,"שנמצאים":14302,"שלילית":14303,"בדל":14304,"נגנון":14305,"יינות":14306,"ink":14307,"ההריון":14308,"בדיני":14309,"102":14310,"106":14311,"וְעַל":14312,"אנושית":14313,"הנוגעים":14314,"מציצות":14315,"הסיום":14316,"חזקת":14317,"החיצו":14318,"במישור":14319,"דיווחים":14320,"בחוסר":14321,"למצפה":14322,"הרבנית":14323,"תעסוק":14324,"כספית":14325,"מרווי":14326,"משמעותו":14327,"לחיזוק":14328,"אֶתְ":14329,"ֶרֶ":14330,"להרבה":14331,"ביטחו":14332,"לסיפור":14333,"במחנה":14334,"מהירים":14335,"התחלנו":14336,"שְׁלֹ":14337,"הכוכב":14338,"הגרמנית":14339,"מעוררת":14340,"בהחלטה":14341,"לכוכב":14342,"תסמינים":14343,"גנציה":14344,"אינטנסי":14345,"אקוסטיות":14346,"кий":14347,"****":14348,"עגולים":14349,"יבואנית":14350,"האקדמיה":14351,"namespace":14352,"בקריאה":14353,"התגובות":14354,"מבטיחים":14355,"והדברה":14356,"פומביים":14357,"ההנהגה":14358,"усали":14359,"ование":14360,"Contin":14361,"צִוָּה":14362,"סטולמן":14363,"schemas":14364,"יִשְׂרָאֵל":14365,"Иерусали":14366,"prefix":14367,"'\"":14368,",...":14369,"350":14370,"Ben":14371,"MS":14372,"че":14373,"ֹה":14374,"אטו":14375,"אדירה":14376,"באות":14377,"במעט":14378,"באחרונה":14379,"העלות":14380,"הניהול":14381,"ודור":14382,"ימצא":14383,"לאירוח":14384,"נריה":14385,"סבר":14386,"עסוק":14387,"עִים":14388,"פנתה":14389,"פגיעות":14390,"קפל":14391,"רבע":14392,"רצים":14393,"שפו":14394,"תאפשר":14395,"תמך":14396,"ותוכ":14397,"וררת":14398,"ביצה":14399,"ליצ":14400,"ליפינים":14401,"נוה":14402,"הירח":14403,"שיקולים":14404,"ברבות":14405,"לארה":14406,"בושה":14407,"פינג":14408,"עיכוב":14409,"פרסים":14410,"קיד":14411,"אלץ":14412,"הרך":14413,"הרצוג":14414,"והשני":14415,"נתב":14416,"מצאי":14417,"גופני":14418,"החזק":14419,"החכמים":14420,"העות":14421,"מחסומים":14422,"לתקוף":14423,"ותרפיה":14424,"לחג":14425,"הפלצבו":14426,"זיס":14427,"מדהימות":14428,"הבטיח":14429,"אלין":14430,"פטן":14431,"לרעה":14432,"בניינים":14433,"שלוחים":14434,"שנם":14435,"מלגז":14436,"הזמר":14437,"להתערב":14438,"פסקו":14439,"וקול":14440,"שעלה":14441,"השיח":14442,"לנוח":14443,"למישהו":14444,"ובראשונה":14445,"הדיווח":14446,"103":14447,"הליכוד":14448,"מוצגים":14449,"ללבוש":14450,"נחם":14451,"שכרו":14452,"בשיל":14453,"וכמעט":14454,"אֲבִי":14455,"הפירות":14456,"גולת":14457,"חובב":14458,"תעשו":14459,"מרווח":14460,"מבואר":14461,"וביוב":14462,"מוקדי":14463,"בפארק":14464,"צביה":14465,"נשיאה":14466,"מסירת":14467,"מסילות":14468,"кон":14469,"חריג":14470,"שנתן":14471,"הבריאותי":14472,"לתוכנית":14473,"לקירות":14474,"דניאלה":14475,"כלליים":14476,"ּוֹת":14477,"משקפיים":14478,"שימושי":14479,"????":14480,"ההכנה":14481,"יצירתיות":14482,"מתקנים":14483,"ност":14484,"AMD":14485,"הסיכויים":14486,"פולוגיה":14487,"Yafo":14488,"Иерусалим":14489,"220":14490,"Ara":14491,"El":14492,"GA":14493,"ты":14494,"אקטיבית":14495,"אאוט":14496,"גרון":14497,"גִּ":14498,"ההמלצה":14499,"ופו":14500,"ומן":14501,"לתוצאות":14502,"לכבד":14503,"סכין":14504,"עבה":14505,"עשות":14506,"פִ":14507,"פאו":14508,"פשות":14509,"פקות":14510,"קֹב":14511,"שכונות":14512,"שכנגד":14513,"תפקו":14514,"המדהים":14515,"ליותר":14516,"ריסה":14517,"שישראל":14518,"ובסופו":14519,"להארי":14520,"להכיל":14521,"ברכישת":14522,"הואיל":14523,"לוצ":14524,"מהס":14525,"בוחר":14526,"חווים":14527,"פראג":14528,"פרקליטות":14529,"ציתי":14530,"משקי":14531,"שהתק":14532,"עוזרים":14533,"אחמד":14534,"הרשע":14535,"בלט":14536,"בלחי":14537,"מצור":14538,"מצבר":14539,"האולם":14540,"השכלה":14541,"כוחה":14542,"לקור":14543,".....":14544,"צוואר":14545,"יתברך":14546,"לבשל":14547,"הנבחרת":14548,"הפקות":14549,"ואמרו":14550,"ואמרה":14551,"הגדה":14552,"עודפים":14553,"גרפים":14554,"נסיים":14555,"הכרויות":14556,"בעיניו":14557,"נרשם":14558,"שבתי":14559,"להתקרב":14560,"שמלה":14561,"ולוני":14562,"נויר":14563,"נפשות":14564,"מתוצרת":14565,"הציונים":14566,"פרוש":14567,"משתמשת":14568,"דיווחה":14569,"מוסרית":14570,"מקווים":14571,"פקידי":14572,"מרובה":14573,"מִמ":14574,"כירור":14575,"הָיָה":14576,"המערכות":14577,"סביבו":14578,"מצבם":14579,"160":14580,"רגשי":14581,"רגשית":14582,"שקיות":14583,"מפינג":14584,"תגמולי":14585,"חמימות":14586,"אֵלַי":14587,"אחיד":14588,"הפרופיל":14589,"roup":14590,"שָׁם":14591,"קוסמטיקה":14592,"הודיעו":14593,"אמצעים":14594,"חגיגה":14595,"הגזע":14596,"תקינה":14597,"סיכוך":14598,"ная":14599,"שיתופי":14600,"איטלקית":14601,"הידראולי":14602,"במזומן":14603,"המחירון":14604,"Af":14605,"Bar":14606,"Saf":14607,"Ye":14608,"kel":14609,"sy":14610,"та":14611,"בקיר":14612,"געות":14613,"דנן":14614,"דֵי":14615,"ההא":14616,"ומשחקים":14617,"זז":14618,"טבר":14619,"כפוף":14620,"לכתב":14621,"לאינטרנט":14622,"ממצאים":14623,"סבורים":14624,"שאחד":14625,"ותמיכה":14626,"וללות":14627,"ולעתים":14628,"בילת":14629,"המחוז":14630,"המטרות":14631,"המגרש":14632,"ליבנה":14633,"נוסים":14634,"ברכבת":14635,"הופיעו":14636,"חידים":14637,"פיסת":14638,"סינט":14639,"גידי":14640,"תומכת":14641,"הרכוש":14642,"הרקע":14643,"דואג":14644,"ארצית":14645,"בתנועה":14646,"סוכות":14647,"סוגיות":14648,"טרפות":14649,"מחברות":14650,"מחלקה":14651,"במקומו":14652,"רתה":14653,"הסבי":14654,"הקטין":14655,"שאליו":14656,"מקדו":14657,"מקדם":14658,"בחדרה":14659,"הגדרה":14660,"הגולש":14661,"ספורות":14662,"המוסלמים":14663,"המשמע":14664,"ומעו":14665,"גרפיים":14666,"גרניט":14667,"הכשרת":14668,"ייקט":14669,"פסול":14670,"נדחתה":14671,"מבפנים":14672,"ברוסיה":14673,"עבורנו":14674,"שיוכלו":14675,"חלפה":14676,"המידות":14677,"הריצה":14678,"קיימא":14679,"שככל":14680,"התיאטרון":14681,"מניחים":14682,"מבוקש":14683,"בכסף":14684,"הורדת":14685,"ההתנהגות":14686,"פסיד":14687,"שֶׁת":14688,"מהמקום":14689,"ett":14690,"במחצית":14691,"להעתיק":14692,"הנהגת":14693,"שקיבלו":14694,"olog":14695,"למשטרה":14696,"תִּ":14697,"ents":14698,"אחיזה":14699,"בטופס":14700,"еры":14701,"נהיגות":14702,"המטופלים":14703,"הַמַּ":14704,"הדרומי":14705,"המלווה":14706,"במדעי":14707,"פיננסיים":14708,"לקריאה":14709,"ההתיישבות":14710,"with":14711,"?\",":14712,"DC":14713,"Hash":14714,"Ma":14715,"dod":14716,"ged":14717,"more":14718,"work":14719,"אקי":14720,"אמונים":14721,"הכתובת":14722,"והמת":14723,"והמר":14724,"ואירועים":14725,"חבה":14726,"יקי":14727,"למשפט":14728,"לשירותי":14729,"עמר":14730,"שדר":14731,"שפרה":14732,"שלפי":14733,"הימני":14734,"אילון":14735,"שיכולה":14736,"ובבי":14737,"להפלי":14738,"אוצרות":14739,"אובייקט":14740,"ברמלה":14741,"בוצעה":14742,"שרבים":14743,"כיבוי":14744,"שהתח":14745,"אחלה":14746,"מעגן":14747,"התגלה":14748,"התפיסה":14749,"השחרור":14750,"בממשלה":14751,"למניה":14752,"וארו":14753,"מקוריים":14754,"בקבלת":14755,"בקפידה":14756,"הגשמים":14757,"אלישע":14758,"חתים":14759,"להיפך":14760,"נראו":14761,"נראות":14762,"מנטי":14763,"מאוניברסיטת":14764,"השוטר":14765,"בנון":14766,"העיתונות":14767,"הביתי":14768,"מגמה":14769,"מגשימים":14770,"דשטיין":14771,"אלוג":14772,"הַדָּ":14773,"המתאר":14774,"אסם":14775,"ירצה":14776,"בועז":14777,"בנן":14778,"מוסלמי":14779,"תלמוד":14780,"שמיעה":14781,"לביוב":14782,"מבוגר":14783,"סביון":14784,"בזול":14785,"במופע":14786,"המעלה":14787,"לפרש":14788,"המשפח":14789,"וריהם":14790,"חלופי":14791,"השתמשו":14792,"ראויים":14793,"בהיבט":14794,"הקשורות":14795,"יריעות":14796,"הגרמני":14797,"ישראליות":14798,"טכנולוגית":14799,"טכנולוגיית":14800,"הקריירה":14801,"דַבֵּר":14802,"מאורגנים":14803,"HDMI":14804,"ויטמינים":14805,"המתקן":14806,"לעובדה":14807,"דָּוִד":14808,"ההנהלה":14809,"Ashdod":14810,"'),":14811,"Cl":14812,"Mi":14813,"OR":14814,"dis":14815,"ple":14816,"Ин":14817,"гра":14818,"אגד":14819,"בכרטיס":14820,"גָּ":14821,"גביר":14822,"הלמידה":14823,"ושלום":14824,"כחה":14825,"כשאנחנו":14826,"מַיִם":14827,"נדית":14828,"נגינה":14829,"עשור":14830,"קמא":14831,"רכה":14832,"שכתוב":14833,"שאוכל":14834,"שטרם":14835,"תשוב":14836,"תסת":14837,"תצוגה":14838,"תבלינים":14839,"‎#":14840,"‬,":14841,"שלות":14842,"רווחי":14843,"המני":14844,"המעצ":14845,"נועי":14846,"ריף":14847,"ריבונות":14848,"מינוי":14849,"ובנו":14850,"ובסוף":14851,"דיט":14852,"חילות":14853,"כלתי":14854,"סיסי":14855,"חומצה":14856,"שואין":14857,"מתמק":14858,"מתאימות":14859,"מראים":14860,"משורי":14861,"משעמם":14862,"מעון":14863,"מעמיק":14864,"והסת":14865,"סוני":14866,"מצבה":14867,"החשו":14868,"האמנים":14869,"השבו":14870,"העתיק":14871,"הערוץ":14872,"מחזי":14873,"לקחתי":14874,"שתצ":14875,"למתי":14876,"לחלל":14877,"לבנק":14878,"הסכסוך":14879,"ערערה":14880,"מפס":14881,"מפנק":14882,"הצדיק":14883,"המועמד":14884,"חררו":14885,"ולהבין":14886,"צרכנים":14887,"הכמות":14888,"נראתה":14889,"בצעו":14890,"בצבעים":14891,"ייקח":14892,"נדט":14893,"מיועדים":14894,"וברור":14895,"מושגים":14896,"פריע":14897,"כשהו":14898,"104":14899,"יהודיים":14900,"ספרדית":14901,"טלפוני":14902,"בלוחות":14903,"מסוכנים":14904,"שכזו":14905,"140":14906,"גלידה":14907,"יציב":14908,"תתפות":14909,"ההתחלה":14910,"מהמקרים":14911,"הקירות":14912,"נורמלי":14913,"מברך":14914,"עתיקה":14915,"מטיילים":14916,"חריש":14917,"נדירים":14918,"חתימה":14919,"נזיום":14920,"חַר":14921,"לִשְׁ":14922,"ממוקד":14923,"ung":14924,"לידיעת":14925,"ההשתתפות":14926,"הצרפתית":14927,"קלאסית":14928,"אספקה":14929,"בברכה":14930,"שלפנינו":14931,"מפורסם":14932,"פרסומת":14933,"ילדיהם":14934,"Read":14935,"אמבטיות":14936,"רכשו":14937,"נפגשו":14938,"הנדרשת":14939,"ברצלונה":14940,"שיצאו":14941,"עכשווי":14942,"האפליקציה":14943,"בטכניון":14944,"reading":14945,"SERIES":14946,"Dim":14947,"Gat":14948,"Mic":14949,"PL":14950,"Po":14951,"Qu":14952,"cel":14953,"ys":14954,"аг":14955,"ׁי":14956,"בִּי":14957,"ושלא":14958,"וביום":14959,"זלים":14960,"טלים":14961,"טעימות":14962,"לור":14963,"מאין":14964,"משרת":14965,"מבטון":14966,"נמרוד":14967,"סוב":14968,"סנים":14969,"פצע":14970,"צובה":14971,"צפיות":14972,"קָר":14973,"רשומים":14974,"שמל":14975,"שדמות":14976,"תבל":14977,"’.":14978,"ותשובות":14979,"ורדה":14980,"ורשים":14981,"רוכשים":14982,"המזל":14983,"המדיה":14984,"אתנו":14985,"נוצרים":14986,"ריב":14987,"ובניה":14988,"ובמקום":14989,"להפעלת":14990,"אוד":14991,"לאס":14992,"נהגת":14993,"תימה":14994,"סיפון":14995,"כיפור":14996,"טירה":14997,"טילים":14998,"מתקשר":14999,"פרחי":15000,"קינו":15001,"גיורא":15002,"ויקי":15003,"ויזה":15004,"ויהיה":15005,"ויתר":15006,"ויכוח":15007,"אחז":15008,"אחורה":15009,"ארגן":15010,"בתעשייה":15011,"סונים":15012,"מצטרף":15013,"העמוד":15014,"מחולה":15015,"במגזר":15016,"בשכונה":15017,"הקובע":15018,"הקשיים":15019,"הקנאביס":15020,"נסע":15021,"נסר":15022,"הבגדים":15023,"דותן":15024,"כותרות":15025,"הצצה":15026,"הצמיחה":15027,"חשבנו":15028,"ולימפי":15029,"קטורים":15030,"עצוב":15031,"עלייך":15032,"בכלים":15033,"בעיי":15034,"הזקן":15035,"לסבול":15036,"מערבי":15037,"חנוך":15038,"פריטי":15039,"כלוך":15040,"לנשי":15041,"וְיָ":15042,"אנוס":15043,"מזכרת":15044,"נפלו":15045,"הגישו":15046,"לְפָ":15047,"וכפי":15048,"ובעקבות":15049,"מרוחק":15050,"המחלוקת":15051,"והתרבות":15052,"מצומצם":15053,"בעצמך":15054,"למדעי":15055,"המאפיינים":15056,"מַע":15057,"הבריטית":15058,"כַּ":15059,"להגנה":15060,"בביה":15061,"טיינות":15062,"זרימת":15063,"פלוני":15064,"העלו":15065,"בדרכו":15066,"כלכליות":15067,"מקסימה":15068,"מתכוני":15069,"מייצרים":15070,"הפליטים":15071,"נקראת":15072,"פתחויות":15073,"ניסיונות":15074,"נפרדים":15075,"להבהיר":15076,"SEO":15077,"דיגיטליים":15078,"מיומנות":15079,"מלמדת":15080,"קולוני":15081,"פופולא":15082,"מייסד":15083,"הרפתקאות":15084,"('":15085,"A0":15086,"AV":15087,"ION":15088,"VM":15089,"אטה":15090,"בפרו":15091,"במוצ":15092,"בזכויות":15093,"בשלוש":15094,"גבאי":15095,"דגי":15096,"דאין":15097,"הכותב":15098,"ומעבר":15099,"וארגונים":15100,"זמינה":15101,"חורות":15102,"יעילים":15103,"כשווי":15104,"כרוך":15105,"כשנתיים":15106,"לדוד":15107,"לניקוי":15108,"נָּ":15109,"נגוף":15110,"עמיד":15111,"עשן":15112,"צלונה":15113,"שדרוג":15114,"תעודה":15115,"ורבי":15116,"ביג":15117,"שלבי":15118,"המגיעים":15119,"המדרגות":15120,"המכתבים":15121,"היקום":15122,"ריבוי":15123,"שיכון":15124,"ובאמת":15125,"ובמקביל":15126,"דיקור":15127,"סידורי":15128,"מרחי":15129,"מראות":15130,"ציונית":15131,"ויס":15132,"וילה":15133,"בעבודות":15134,"בעבירות":15135,"התכולה":15136,"קרבה":15137,"בתערוכה":15138,"החזקה":15139,"האמצעים":15140,"השתי":15141,"מחובר":15142,"אהבו":15143,"הסורי":15144,"הספיק":15145,"הנקרא":15146,"הנגיד":15147,"מפלדה":15148,"הגעת":15149,"לשרוד":15150,"הצער":15151,"הצגות":15152,"אליהן":15153,"ומלא":15154,"ולידה":15155,"כבן":15156,"שנכתב":15157,"לגול":15158,"שמאחורי":15159,"וקבל":15160,"סרטוני":15161,"inter":15162,"כננו":15163,"שקבע":15164,"יצרה":15165,"יצטרך":15166,"ons":15167,"בגב":15168,"קדמת":15169,"הסיני":15170,"החיצוני":15171,"מנועי":15172,"eng":15173,"ale":15174,"הדרג":15175,"בחוזה":15176,"ראשל":15177,"צבאות":15178,"במסמך":15179,"משיבה":15180,"רטרו":15181,"העוסקת":15182,"העונשין":15183,"בקרבת":15184,"בזרי":15185,"במוצר":15186,"רעפים":15187,"ild":15188,"מעוז":15189,"נאסר":15190,"רָיִם":15191,"שנותר":15192,"מסתכלים":15193,"שחורה":15194,"בעונת":15195,"בביטוח":15196,"המקומיות":15197,"חקירות":15198,"ונוער":15199,"אחידה":15200,"סגורה":15201,"נתונה":15202,"מטופלים":15203,"לצרכן":15204,"Inc":15205,"נמוכות":15206,"האופציה":15207,"המוסדות":15208,"cont":15209,"בישיבת":15210,"מיומנויות":15211,"בספרייה":15212,"ממושך":15213,"הנשיאה":15214,"העסקית":15215,"קיסריה":15216,"פרוטוקול":15217,"והברקה":15218,"Br":15219,"EX":15220,"Hol":15221,"TP":15222,"Tag":15223,"בשליטה":15224,"דנקנר":15225,"הלשון":15226,"וטו":15227,"וחד":15228,"חָה":15229,"לגדול":15230,"מלב":15231,"מלות":15232,"מזיקים":15233,"נלמד":15234,"סלים":15235,"סויה":15236,"סמדר":15237,"צלעות":15238,"קֵ":15239,"קסום":15240,"שורי":15241,"שגורם":15242,"תבנית":15243,"תפקוד":15244,"ולאו":15245,"בידיו":15246,"ריקוד":15247,"מישהי":15248,"ובדן":15249,"ובעלת":15250,"להנד":15251,"להעיד":15252,"עלולות":15253,"פידים":15254,"כינים":15255,"מתקיימים":15256,"תוסף":15257,"בהרחבה":15258,"דרעי":15259,"בעשרות":15260,"מעשיו":15261,"פושים":15262,"מצביע":15263,"מחבלים":15264,"מחזיקים":15265,"במנה":15266,"יהנו":15267,"לחקירה":15268,"לבור":15269,"בשנתיים":15270,"מדויי":15271,"בחורות":15272,"בחלקו":15273,"חשמלית":15274,"ומהיר":15275,"וממילא":15276,"גרף":15277,"פורץ":15278,"להיפטר":15279,"שנקבעו":15280,"003":15281,"מנעות":15282,"טהורה":15283,"זורם":15284,"תרגילים":15285,"אורתו":15286,"מדידה":15287,"מגדיר":15288,"עורכת":15289,"107":15290,"ברוכים":15291,"לנכון":15292,"חלקן":15293,"ָּהוּ":15294,"מזמין":15295,"מזמינה":15296,"האוה":15297,"הציגה":15298,"הכלב":15299,"הפרקליטות":15300,"במיטה":15301,"בלוח":15302,"נעמה":15303,"הקומיקס":15304,"גולש":15305,"כסאות":15306,"חילתו":15307,"מינימום":15308,"ומתקני":15309,"אדמות":15310,"שנותן":15311,"ote":15312,"וכיו":15313,"בייחוד":15314,"HaE":15315,"דמוקרטית":15316,"שעלול":15317,"בצירוף":15318,"תסריט":15319,"הנסיבות":15320,"העיקריות":15321,"האהובים":15322,"צבעוניים":15323,"האמריקאים":15324,"טכניקות":15325,"trans":15326,"נשארו":15327,"iber":15328,"מטורף":15329,"תריסים":15330,"המפורסמים":15331,"לצורכי":15332,"כֹּהֵן":15333,"יַעֲקֹב":15334,"Engine":15335,"סֵף":15336,"Herz":15337,"Dimona":15338,"9E":15339,"IBM":15340,"Wh":15341,"Рам":15342,"фа":15343,"אֻ":15344,"אקטיבי":15345,"אזהרה":15346,"בכר":15347,"בבלוג":15348,"בבטן":15349,"גמלא":15350,"גברת":15351,"הולם":15352,"וחבר":15353,"וניות":15354,"יפון":15355,"לִים":15356,"לגופו":15357,"מקרב":15358,"נזר":15359,"נמון":15360,"סמה":15361,"פשית":15362,"פנאי":15363,"פגישות":15364,"שחם":15365,"תצו":15366,"תהיו":15367,"תבוא":15368,"וראש":15369,"ולאי":15370,"ולדעת":15371,"ביהודה":15372,"ליס":15373,"ריבו":15374,"רימונים":15375,"מובילות":15376,"מיטת":15377,"ובמידה":15378,"אומות":15379,"ברלין":15380,"נהרג":15381,"פיט":15382,"סיעוד":15383,"שוהם":15384,"מתגלה":15385,"מתנצל":15386,"ציורי":15387,"ציונות":15388,"שהחל":15389,"זהבה":15390,"מסקנות":15391,"סוכנו":15392,"מצוא":15393,"גומי":15394,"גופה":15395,"יואל":15396,"האבות":15397,"השקיה":15398,"העדה":15399,"ישבים":15400,"לקחה":15401,"לקהילה":15402,"לחמים":15403,"לבש":15404,"בשמו":15405,"בקריות":15406,"הברו":15407,"וריא":15408,"לשבוע":15409,"דברג":15410,"לרשום":15411,"לרצות":15412,"עצמאות":15413,"לפצות":15414,"בעייתי":15415,"בדלת":15416,"בטאת":15417,"לגעת":15418,"פסקת":15419,"הדגים":15420,"השישי":15421,"דתם":15422,"נקציות":15423,"ונשים":15424,"למיניהם":15425,"כזכור":15426,"ניינו":15427,"105":15428,"יחול":15429,"בעלויות":15430,"הרישום":15431,"הכיר":15432,"הגיבור":15433,"נשאל":15434,"ence":15435,"נחלת":15436,"מוסלמים":15437,"המסמך":15438,"מחויי":15439,"המקובל":15440,"ונותן":15441,"הירש":15442,"אדג":15443,"פלילית":15444,"פרטנר":15445,"מטיבי":15446,"מרתקים":15447,"oth":15448,"כָּ":15449,"ספורטאים":15450,"ספרייה":15451,"תורם":15452,"ניסטית":15453,"ההרשמה":15454,"דיסקרטיות":15455,"להדליק":15456,"que":15457,"סטריאו":15458,"שָּׂ":15459,"מודרנית":15460,"להתרחש":15461,"UUUUUUUUUUUUUUUUUUUUUUUUUUUUUUUU":15462,"גנטיות":15463,"כַל":15464,"חינוכית":15465,"וליווי":15466,"להכריז":15467,"הסתיימה":15468,"Hadera":15469,"אֶתְכֶם":15470,"Continue":15471,"Hasharon":15472,"/%":15473,"book":15474,"ve":15475,"אגם":15476,"בזו":15477,"בשירותי":15478,"בדוק":15479,"גולה":15480,"דאי":15481,"דמעות":15482,"ההיסטורית":15483,"ודה":15484,"וצו":15485,"ופרו":15486,"ושתי":15487,"חמת":15488,"ילך":15489,"כשא":15490,"לאתרים":15491,"נחר":15492,"סע":15493,"סולם":15494,"קברות":15495,"רשאים":15496,"ותיר":15497,"ניגוד":15498,"ביצ":15499,"שלחה":15500,"רוויה":15501,"המחוקק":15502,"ליקט":15503,"היקרים":15504,"ריפוי":15505,"שילר":15506,"ובמה":15507,"דיבות":15508,"הונג":15509,"הוכח":15510,"בוחן":15511,"מתא":15512,"קומם":15513,"פרע":15514,"ציורים":15515,"ציונים":15516,"תוּ":15517,"תודעה":15518,"שהאדם":15519,"שהגיעה":15520,"אלול":15521,"מעמדו":15522,"מעמיקה":15523,"התנג":15524,"פודים":15525,"נתרן":15526,"העכבר":15527,"מחנות":15528,"ביתן":15529,"במקרר":15530,"לתובעת":15531,"לתעשייה":15532,"לבניין":15533,"הסתיים":15534,"הפעילויות":15535,"מדעית":15536,"בחשד":15537,"מפנה":15538,"הבדיקות":15539,"הגבלה":15540,"גרעין":15541,"חרס":15542,"לטכנ":15543,"בניתוח":15544,"כמוהו":15545,"אינכם":15546,"וחזר":15547,"שורק":15548,"הביקוש":15549,"לדרישות":15550,"לנחש":15551,"סתן":15552,"בליגת":15553,"מוצאת":15554,"הפרסו":15555,"הארצית":15556,"ירדה":15557,"זכרונות":15558,"מכילים":15559,"בנקודה":15560,"מוסך":15561,"ותינו":15562,"התקן":15563,"its":15564,"תתקיים":15565,"рав":15566,"ההתפתחות":15567,"במחלקה":15568,"ame":15569,"קודמות":15570,"למוזיקה":15571,"reat":15572,"תאגיד":15573,"נדיאל":15574,"לייעוץ":15575,"לאהוב":15576,"היחידי":15577,"נָי":15578,"חמישים":15579,"אקציה":15580,"סטודנט":15581,"מעידה":15582,"act":15583,"לוחמים":15584,"אלקטרונית":15585,"שעלו":15586,"מכתבי":15587,"הכרחי":15588,"בָא":15589,"מעצם":15590,"להתיר":15591,"בספרות":15592,"לוֹם":15593,"להמליץ":15594,"אינספור":15595,"נפתחה":15596,"הגלוב":15597,"אחוזת":15598,"נחתם":15599,"ההגדרה":15600,"בקטגוריית":15601,"teen":15602,"המכוניות":15603,"בפריז":15604,"הבסיסית":15605,"לדווח":15606,"בהזדמנות":15607,"מבטיחה":15608,"מוזיקלי":15609,"דואגים":15610,"מבריק":15611,"העסקיים":15612,"יְהוֹשֻׁעַ":15613,"iyon":15614,"ההליכים":15615,"הרפובלי":15616,"Sky":15617,"ba":15618,"cess":15619,"אשי":15620,"אגרת":15621,"בצר":15622,"גדה":15623,"ההכנסה":15624,"יזהר":15625,"לְּ":15626,"לשיווק":15627,"מפרק":15628,"צאים":15629,"ורוב":15630,"ורין":15631,"ורוח":15632,"ורצפות":15633,"ולאפשר":15634,"ביעילות":15635,"שלטים":15636,"המרי":15637,"המתואר":15638,"המסקנה":15639,"ליהם":15640,"ליבות":15641,"נובל":15642,"אירה":15643,"מוזמן":15644,"ובשל":15645,"ובתוך":15646,"לאשה":15647,"לאנגלית":15648,"פילת":15649,"פינק":15650,"פיסות":15651,"סיכ":15652,"כיחו":15653,"פרצו":15654,"ציינו":15655,"גילת":15656,"עופרת":15657,"אלמנט":15658,"התגלו":15659,"והחלט":15660,"והחברה":15661,"בתקווה":15662,"מצגת":15663,"השול":15664,"העובר":15665,"לממן":15666,"למחוק":15667,"למבנה":15668,"לחמות":15669,"מאזור":15670,"בשאלת":15671,"הקבר":15672,"הקטע":15673,"הקשרים":15674,"בורא":15675,"מדרום":15676,"לשטיין":15677,"הכרת":15678,"בכלכלה":15679,"בצפת":15680,"וקל":15681,"השיפו":15682,"נקן":15683,"תרנג":15684,"אורנה":15685,"1970":15686,"מכרות":15687,"שקעים":15688,"פערים":15689,"הדיונים":15690,"109":15691,"האימונים":15692,"האימפריה":15693,"רבדים":15694,"בפניי":15695,"בפנינו":15696,"בלימוד":15697,"המיסים":15698,"בגבעת":15699,"קייק":15700,"וַיָּ":15701,"atch":15702,"למעמד":15703,"בסיוע":15704,"אריזות":15705,"הרוסית":15706,"המרחק":15707,"שכבה":15708,"לשיטת":15709,"ital":15710,"סטייל":15711,"פליטים":15712,"בגישה":15713,"חלוץ":15714,"עתירה":15715,"אתיקה":15716,"chn":15717,"מסתובב":15718,"להגביר":15719,"תגלו":15720,"ליטול":15721,"טבעיות":15722,"העצמית":15723,"צעירות":15724,"פלסטיני":15725,"נקיון":15726,"הצרכנים":15727,"העורר":15728,"בתחתית":15729,"גנב":15730,"פתוחות":15731,"נשארים":15732,"???":15733,"הפסיכו":15734,"פרסומות":15735,"תחרותי":15736,"תערוכות":15737,"רלוונטיים":15738,"הייחודית":15739,"view":15740,"רֹאשׁ":15741,"מארטפונים":15742,"כריתת":15743,"Tsiyon":15744,"צטדיון":15745,"מלגזות":15746,"‬,‫":15747,"##":15748,"оз":15749,"אקוס":15750,"בכוונה":15751,"זבל":15752,"טנא":15753,"טבילה":15754,"טמרה":15755,"כדרך":15756,"לכול":15757,"לזר":15758,"לשלושה":15759,"למשפחת":15760,"מרום":15761,"נורה":15762,"נעת":15763,"סַ":15764,"סדום":15765,"צחה":15766,"קִים":15767,"רעלים":15768,"שמתו":15769,"ששמו":15770,"שממנו":15771,"תביא":15772,"רומה":15773,"רוֹת":15774,"המנות":15775,"המשלב":15776,"נום":15777,"איזור":15778,"ריבלין":15779,"שיאפשר":15780,"מושי":15781,"מושת":15782,"מיתר":15783,"מימין":15784,"דילים":15785,"דיברו":15786,"אומי":15787,"אוניבר":15788,"ברתי":15789,"תימור":15790,"בואה":15791,"בושות":15792,"פישל":15793,"פיצוץ":15794,"שופ":15795,"כישות":15796,"קומיקס":15797,"משמרות":15798,"תוכלי":15799,"שהחברה":15800,"עוה":15801,"וינס":15802,"נותרה":15803,"בעוב":15804,"הרבות":15805,"ארמון":15806,"סודיות":15807,"החלמה":15808,"יוֹת":15809,"האפי":15810,"השג":15811,"כוונות":15812,"מחדל":15813,"יתה":15814,"באקה":15815,"הסברה":15816,"מאמצים":15817,"הנבח":15818,"זינים":15819,"זילבר":15820,"מפלס":15821,"מפלסטיק":15822,"לשחרור":15823,"הצורה":15824,"הצגה":15825,"המוד":15826,"ומכ":15827,"גרעי":15828,"פורצלן":15829,"להיו":15830,"בעיירה":15831,"בצת":15832,"שמנת":15833,"ידיד":15834,"בנוסח":15835,"ילדיו":15836,"לפייסבוק":15837,"לצרוך":15838,"בדיחה":15839,"לדמיין":15840,"האינט":15841,"וְנִ":15842,"נפגעים":15843,"ספרה":15844,"הַכֹּהֵן":15845,"anya":15846,"שהוגשה":15847,"115":15848,"שׁוֹן":15849,"בנאל":15850,"ְּׁ":15851,"בחוות":15852,"לְעָ":15853,"ושאל":15854,"עַתָּה":15855,"חברתנו":15856,"מייצר":15857,"הזוגיות":15858,"הסוד":15859,"טורת":15860,"שייכות":15861,"רְאוּ":15862,"הניו":15863,"לכדור":15864,"כחצי":15865,"הקיום":15866,"שקיבלתי":15867,"שמחתי":15868,"למשמר":15869,"הכושר":15870,"ירוחם":15871,"ארגוניות":15872,"נכנסה":15873,"ממועד":15874,"הרביעית":15875,"ולשמור":15876,"להשגת":15877,"אמצע":15878,"חגיגות":15879,"יורדת":15880,"יוֹסֵף":15881,"אסטרטגי":15882,"מדריד":15883,"המנצח":15884,"ROU":15885,"נולדו":15886,"עיקריים":15887,"למגורים":15888,"צֵא":15889,"היצרן":15890,"אַחֲרֵי":15891,"==":15892,"AS":15893,"Gal":15894,"TV":15895,"You":15896,"pub":15897,"ֻּ":15898,"אפיק":15899,"באירועים":15900,"בפוסט":15901,"גזה":15902,"גדוד":15903,"דֶּ":15904,"הֶם":15905,"ודרך":15906,"ושב":15907,"ונד":15908,"ומדובר":15909,"ופעילות":15910,"והילדים":15911,"ונתן":15912,"ומאפשרת":15913,"זנת":15914,"כִ":15915,"לנגד":15916,"מאותה":15917,"מגיש":15918,"מקיימים":15919,"סתיו":15920,"עקה":15921,"פוריות":15922,"צמצום":15923,"קבצים":15924,"רחש":15925,"רכז":15926,"שמשת":15927,"שהיית":15928,"ששול":15929,"תגיד":15930,"ותקשורת":15931,"ולהג":15932,"רופין":15933,"המסיי":15934,"ליטים":15935,"נועות":15936,"היטל":15937,"הישנה":15938,"הישג":15939,"מוֹת":15940,"ובעצם":15941,"להתיי":15942,"דיסקו":15943,"ברורות":15944,"הוכיח":15945,"הוסיפה":15946,"לאחי":15947,"לאמור":15948,"לוות":15949,"מהארץ":15950,"בוֹא":15951,"עילת":15952,"חופי":15953,"כיחים":15954,"מתעל":15955,"מתקשה":15956,"פרנסה":15957,"ציפיות":15958,"עוס":15959,"עושות":15960,"וירו":15961,"מעגלים":15962,"ארך":15963,"בתפריט":15964,"בתקנות":15965,"בתקנון":15966,"פוטו":15967,"טרנזי":15968,"טרמינל":15969,"גוטמן":15970,"החלון":15971,"החמאס":15972,"יומית":15973,"האס":15974,"האמורים":15975,"האקלים":15976,"האנלי":15977,"האבטחה":15978,"השמו":15979,"השמונה":15980,"העולים":15981,"מחליף":15982,"לתקופת":15983,"שתכירו":15984,"למאבק":15985,"הסעיף":15986,"מאם":15987,"מדגיש":15988,"הבנו":15989,"הגלו":15990,"לשמח":15991,"חשפה":15992,"המומל":15993,"לטעום":15994,"לרבי":15995,"סטות":15996,"ולהביא":15997,"לפעולה":15998,"מלפני":15999,"שבג":16000,"הדרוש":16001,"שעובד":16002,"1942":16003,"לצערנו":16004,"ery":16005,"הטל":16006,"כשהיה":16007,"סקסי":16008,"לנשיא":16009,"בגמרא":16010,"חוקרי":16011,"כליות":16012,"מנועים":16013,"אסא":16014,"עדינה":16015,"מסוף":16016,"ידעה":16017,"חוברות":16018,"לשינויים":16019,"יציאת":16020,"הוליו":16021,"הסוכר":16022,"הסוכנות":16023,"שרין":16024,"ידענו":16025,"במוח":16026,"ההתקשרות":16027,"פיתרון":16028,"ilat":16029,"אָבִ":16030,"ווחים":16031,"פתיות":16032,"קניתי":16033,"הנהר":16034,"נציב":16035,"עזבו":16036,"ביוטיקה":16037,"סיימתי":16038,"גידולים":16039,"סטרול":16040,"לזכר":16041,"השלמת":16042,"שחקנית":16043,"כריז":16044,"האורתו":16045,"במעשה":16046,"תורמים":16047,"מטוס":16048,"stem":16049,"סופרמן":16050,"орт":16051,"להסתפק":16052,"לריצוף":16053,"בשבילך":16054,"מקסימום":16055,"פגשתי":16056,"הדמוקרטיה":16057,"מונעת":16058,"השריר":16059,"אֹתָם":16060,"הרשמית":16061,"הבסיסי":16062,"תָן":16063,"גיליתי":16064,"לואיס":16065,"בהזמנה":16066,"לתחנת":16067,"הרלוונטיים":16068,"Ashkel":16069,"THROU":16070,"מצויינת":16071,"השביעי":16072,"סוקרטס":16073,"לבדיקת":16074,"מחודשת":16075,"Ashkelon":16076,"THROUGH":16077,"IM":16078,"MRI":16079,"XN":16080,"Ya":16081,"cy":16082,"land":16083,"line":16084,"u003":16085,"ОО":16086,"ур":16087,"אבס":16088,"בשונה":16089,"הגוש":16090,"האחראי":16091,"ההרצאה":16092,"חלת":16093,"חמאה":16094,"יליד":16095,"כברי":16096,"לקרקע":16097,"לנגן":16098,"פכו":16099,"צנת":16100,"קנס":16101,"קַּח":16102,"שברי":16103,"שמנ":16104,"שבעת":16105,"שברשות":16106,"׳¨":16107,"ניסויים":16108,"ולדי":16109,"המרה":16110,"המגן":16111,"המטבע":16112,"לינק":16113,"אתִי":16114,"היפנית":16115,"היכולות":16116,"איומים":16117,"ריאות":16118,"ריצופים":16119,"מירון":16120,"להכנת":16121,"הוציאה":16122,"לאמר":16123,"עלמה":16124,"חיתה":16125,"לוע":16126,"בוטה":16127,"פייס":16128,
[...]
